[PAD]	0
[Q]	0
[YES]	0
[NO]	0
[NoLongAnswer]	0
[NoShortAnswer]	0
[SA]	0
[/SA]	0
[Paragraph=1]	0
[Paragraph=2]	0
[Paragraph=3]	0
[Paragraph=4]	0
[Paragraph=5]	0
[Paragraph=6]	0
[Paragraph=7]	0
[Paragraph=8]	0
[Paragraph=9]	0
[Paragraph=10]	0
[Paragraph=11]	0
[Paragraph=12]	0
[Paragraph=13]	0
[Paragraph=14]	0
[Paragraph=15]	0
[Paragraph=16]	0
[Paragraph=17]	0
[Paragraph=18]	0
[Paragraph=19]	0
[Paragraph=20]	0
[Paragraph=21]	0
[Paragraph=22]	0
[Paragraph=23]	0
[Paragraph=24]	0
[Paragraph=25]	0
[Paragraph=26]	0
[Paragraph=27]	0
[Paragraph=28]	0
[Paragraph=29]	0
[Paragraph=30]	0
[Paragraph=31]	0
[Paragraph=32]	0
[Paragraph=33]	0
[Paragraph=34]	0
[Paragraph=35]	0
[Paragraph=36]	0
[Paragraph=37]	0
[Paragraph=38]	0
[Paragraph=39]	0
[Paragraph=40]	0
[Paragraph=41]	0
[Paragraph=42]	0
[Paragraph=43]	0
[Paragraph=44]	0
[Paragraph=45]	0
[Paragraph=46]	0
[Paragraph=47]	0
[Paragraph=48]	0
[Paragraph=49]	0
[Paragraph=50]	0
[Paragraph=51]	0
[Paragraph=52]	0
[Paragraph=53]	0
[Paragraph=54]	0
[Paragraph=55]	0
[Paragraph=56]	0
[Paragraph=57]	0
[Paragraph=58]	0
[Paragraph=59]	0
[Paragraph=60]	0
[Paragraph=61]	0
[Paragraph=62]	0
[Paragraph=63]	0
[Paragraph=64]	0
[Paragraph=65]	0
[Paragraph=66]	0
[Paragraph=67]	0
[Paragraph=68]	0
[Paragraph=69]	0
[Paragraph=70]	0
[Paragraph=71]	0
[Paragraph=72]	0
[Paragraph=73]	0
[Paragraph=74]	0
[Paragraph=75]	0
[Paragraph=76]	0
[Paragraph=77]	0
[Paragraph=78]	0
[Paragraph=79]	0
[Paragraph=80]	0
[Paragraph=81]	0
[Paragraph=82]	0
[Paragraph=83]	0
[Paragraph=84]	0
[Paragraph=85]	0
[Paragraph=86]	0
[Paragraph=87]	0
[Paragraph=88]	0
[Paragraph=89]	0
[Paragraph=90]	0
[Paragraph=91]	0
[Paragraph=92]	0
[Paragraph=93]	0
[Paragraph=94]	0
[Paragraph=95]	0
[Paragraph=96]	0
[Paragraph=97]	0
[Paragraph=98]	0
[Paragraph=99]	0
[Paragraph=100]	0
[ContextId=-1]	0
[ContextId=0]	0
[ContextId=1]	0
[ContextId=2]	0
[ContextId=3]	0
[ContextId=4]	0
[ContextId=5]	0
[ContextId=6]	0
[ContextId=7]	0
[ContextId=8]	0
[ContextId=9]	0
[ContextId=10]	0
[ContextId=11]	0
[ContextId=12]	0
[ContextId=13]	0
[ContextId=14]	0
[ContextId=15]	0
[ContextId=16]	0
[ContextId=17]	0
[ContextId=18]	0
[ContextId=19]	0
[ContextId=20]	0
[ContextId=21]	0
[ContextId=22]	0
[ContextId=23]	0
[ContextId=24]	0
[ContextId=25]	0
[ContextId=26]	0
[ContextId=27]	0
[ContextId=28]	0
[ContextId=29]	0
[ContextId=30]	0
[ContextId=31]	0
[ContextId=32]	0
[ContextId=33]	0
[ContextId=34]	0
[ContextId=35]	0
[ContextId=36]	0
[ContextId=37]	0
[ContextId=38]	0
[ContextId=39]	0
[ContextId=40]	0
[ContextId=41]	0
[ContextId=42]	0
[ContextId=43]	0
[ContextId=44]	0
[ContextId=45]	0
[ContextId=46]	0
[ContextId=47]	0
[ContextId=48]	0
[ContextId=49]	0
[ContextId=50]	0
[ContextId=51]	0
[ContextId=52]	0
[ContextId=53]	0
[ContextId=54]	0
[ContextId=55]	0
[ContextId=56]	0
[ContextId=57]	0
[ContextId=58]	0
[ContextId=59]	0
[ContextId=60]	0
[ContextId=61]	0
[ContextId=62]	0
[ContextId=63]	0
[ContextId=64]	0
[ContextId=65]	0
[ContextId=66]	0
[ContextId=67]	0
[ContextId=68]	0
[ContextId=69]	0
[ContextId=70]	0
[ContextId=71]	0
[ContextId=72]	0
[ContextId=73]	0
[ContextId=74]	0
[ContextId=75]	0
[ContextId=76]	0
[ContextId=77]	0
[ContextId=78]	0
[ContextId=79]	0
[ContextId=80]	0
[ContextId=81]	0
[ContextId=82]	0
[ContextId=83]	0
[ContextId=84]	0
[ContextId=85]	0
[ContextId=86]	0
[ContextId=87]	0
[ContextId=88]	0
[ContextId=89]	0
[ContextId=90]	0
[ContextId=91]	0
[ContextId=92]	0
[ContextId=93]	0
[ContextId=94]	0
[ContextId=95]	0
[ContextId=96]	0
[ContextId=97]	0
[ContextId=98]	0
[ContextId=99]	0
[ContextId=100]	0
[unused1]	0
[unused2]	0
[unused3]	0
[unused4]	0
[unused5]	0
[unused6]	0
[unused7]	0
[unused8]	0
[unused9]	0
[unused10]	0
[unused11]	0
[unused12]	0
[unused13]	0
[unused14]	0
[unused15]	0
[unused16]	0
[unused17]	0
[unused18]	0
[unused19]	0
[unused20]	0
[unused21]	0
[unused22]	0
[unused23]	0
[unused24]	0
[unused25]	0
[unused26]	0
[unused27]	0
[unused28]	0
[unused29]	0
[unused30]	0
[unused31]	0
[unused32]	0
[unused33]	0
[unused34]	0
[unused35]	0
[unused36]	0
[unused37]	0
[unused38]	0
[unused39]	0
[unused40]	0
[unused41]	0
[unused42]	0
[unused43]	0
[unused44]	0
[unused45]	0
[unused46]	0
[unused47]	0
[unused48]	0
[unused49]	0
[unused50]	0
[unused51]	0
[unused52]	0
[unused53]	0
[unused54]	0
[unused55]	0
[unused56]	0
[unused57]	0
[unused58]	0
[unused59]	0
[unused60]	0
[unused61]	0
[unused62]	0
[unused63]	0
[unused64]	0
[unused65]	0
[unused66]	0
[unused67]	0
[unused68]	0
[unused69]	0
[unused70]	0
[unused71]	0
[unused72]	0
[unused73]	0
[unused74]	0
[unused75]	0
[unused76]	0
[unused77]	0
[unused78]	0
[unused79]	0
[unused80]	0
[unused81]	0
[unused82]	0
[unused83]	0
[unused84]	0
[unused85]	0
[unused86]	0
[unused87]	0
[unused88]	0
[unused89]	0
[unused90]	0
[unused91]	0
[unused92]	0
[unused93]	0
[unused94]	0
[unused95]	0
[unused96]	0
[unused97]	0
[unused98]	0
[unused99]	0
[CLS]	0
[SEP]	0
[MASK]	0
[UNK]	0
<s>	0
</s>	0
.	-3.41483
,	-3.46826
▁	-3.81618
s	-4.56211
▁de	-4.80126
▁(	-5.03267
-	-5.05702
e	-5.19982
)	-5.2016
▁a	-5.32579
a	-5.3282
▁the	-5.46704
'	-5.51836
:	-5.53249
▁in	-5.59259
▁sa	-5.64141
i	-5.76609
▁of	-5.76746
▁la	-5.76874
en	-5.89441
▁en	-5.97397
▁i	-5.97655
o	-5.98437
n	-6.06706
▁and	-6.1281
。	-6.19006
t	-6.22972
u	-6.27923
、	-6.34996
▁"	-6.43079
▁to	-6.44463
er	-6.46471
▁e	-6.48722
▁di	-6.55001
▁-	-6.55728
y	-6.56063
а	-6.63238
es	-6.6389
▁l	-6.69716
▁A	-6.70604
▁un	-6.72612
▁d	-6.73979
▁в	-6.75154
▁el	-6.79904
▁der	-6.80363
▁se	-6.80715
▁The	-6.82259
r	-6.83547
▁que	-6.84013
▁на	-6.84635
▁na	-6.84826
;	-6.86156
▁—	-6.86379
(	-6.86464
▁o	-6.87121
/	-6.87389
"	-6.87464
▁nga	-6.8792
▁is	-6.90288
▁y	-6.90333
▁–	-6.91742
an	-6.92639
▁del	-6.92763
年	-6.94102
и	-6.95303
).	-6.96166
g	-6.96792
m	-6.98043
▁и	-6.98815
▁le	-6.99441
),	-7.00895
▁et	-7.01964
C	-7.0354
▁die	-7.05943
▁for	-7.06736
▁und	-7.08933
の	-7.09405
l	-7.10047
▁«	-7.1017
d	-7.10725
的	-7.11225
▁was	-7.11269
▁on	-7.11509
▁des	-7.17213
in	-7.20149
▁da	-7.212
▁L	-7.22632
▁do	-7.2282
▁Ang	-7.23053
▁är	-7.24179
е	-7.24485
▁den	-7.24969
on	-7.2779
▁as	-7.30786
▁T	-7.30786
os	-7.3131
▁je	-7.31967
▁ang	-7.32554
▁w	-7.33154
▁an	-7.33954
▁La	-7.35321
у	-7.35475
ing	-7.37367
k	-7.37776
▁S	-7.38166
▁van	-7.39132
▁1	-7.39325
ed	-7.39926
▁al	-7.39981
▁D	-7.41203
▁G	-7.41952
▁à	-7.42718
▁I	-7.4377
de	-7.44171
▁con	-7.44954
▁In	-7.45126
▁km	-7.45533
▁du	-7.46033
▁per	-7.47671
،	-7.49969
te	-7.50609
▁at	-7.5152
ar	-7.52302
▁у	-7.52596
▁les	-7.53186
▁v	-7.54116
▁er	-7.5426
▁:	-7.55144
▁u	-7.56534
▁P	-7.56713
▁il	-7.56713
da	-7.57533
▁by	-7.57641
ta	-7.58176
et	-7.58377
▁una	-7.58485
na	-7.58823
月	-7.59282
▁N	-7.6005
us	-7.60054
▁C	-7.61555
▁NASA	-7.61919
h	-7.6336
▁av	-7.63505
▁m	-7.63682
▁De	-7.63871
▁s	-7.64546
▁2	-7.6468
▁og	-7.64745
re	-7.65756
▁B	-7.65907
z	-7.6684
は	-7.67027
’	-7.67176
▁M	-7.67314
▁و	-7.67988
о	-7.6818
▁z	-7.68456
al	-7.69898
▁von	-7.69933
»	-7.70049
▁with	-7.70308
▁su	-7.70687
▁med	-7.70757
as	-7.71365
を	-7.71656
▁ka	-7.71667
2	-7.72181
ne	-7.72236
・	-7.72931
।	-7.73517
▁por	-7.74957
▁с	-7.75019
▁no	-7.75113
do	-7.75402
A	-7.75631
is	-7.7585
が	-7.76577
▁°	-7.7727
se	-7.77966
to	-7.78227
▁est	-7.78555
▁3	-7.8134
に	-7.82253
▁10	-7.82391
▁be	-7.82677
▁los	-7.83418
▁och	-7.83537
M	-7.84988
▁за	-7.85303
▁O	-7.85484
".	-7.86795
ы	-7.87013
1	-7.87168
н	-7.8817
日	-7.8946
le	-7.89731
ja	-7.90015
▁V	-7.90858
c	-7.9091
em	-7.91963
▁El	-7.92154
▁&	-7.92262
▁som	-7.92329
▁F	-7.92665
é	-7.93581
▁es	-7.94173
▁W	-7.94577
▁from	-7.94859
▁that	-7.95426
▁В	-7.9569
▁4	-7.95691
▁ה	-7.96043
▁по	-7.96688
▁ni	-7.97226
ch	-7.97459
▁ja	-7.98009
la	-7.98704
▁„	-7.98756
no	-7.99083
S	-7.99202
і	-8.00843
▁Le	-8.00912
ni	-8.01027
ia	-8.01074
я	-8.01388
▁5	-8.01431
▁het	-8.01445
ti	-8.02386
p	-8.02927
▁par	-8.03263
▁para	-8.04627
▁za	-8.04684
▁om	-8.04686
▁En	-8.04699
b	-8.04782
j	-8.052
▁im	-8.05291
3	-8.05427
▁k	-8.06052
▁ha	-8.06704
at	-8.07266
▁Earth	-8.08328
▁he	-8.08985
un	-8.09396
ka	-8.10811
▁ال	-8.10986
▁An	-8.11286
▁ug	-8.12103
▁K	-8.12176
ом	-8.12932
▁mit	-8.13021
▁E	-8.13692
ی	-8.14199
▁في	-8.14593
▁een	-8.14915
▁si	-8.15734
▁po	-8.16772
f	-8.17711
li	-8.18134
it	-8.18167
▁his	-8.18204
▁dan	-8.18454
м	-8.19157
▁J	-8.19575
х	-8.19815
▁ב	-8.19871
E	-8.20398
▁در	-8.20831
▁p	-8.21238
ă	-8.21808
“	-8.22126
▁como	-8.22228
▁kina	-8.22606
▁6	-8.22664
▁op	-8.22766
ra	-8.22871
▁på	-8.23163
th	-8.23803
▁U	-8.23895
ly	-8.24183
▁20	-8.24515
▁em	-8.24889
▁od	-8.25885
」	-8.25941
й	-8.25997
▁Die	-8.2697
ma	-8.27076
▁Den	-8.27341
▁ISBN	-8.28007
▁12	-8.28066
▁als	-8.28348
ie	-8.28539
▁au	-8.28555
▁а	-8.28671
で	-8.29012
▁He	-8.2919
st	-8.29375
va	-8.29458
▁va	-8.29519
▁2011	-8.29638
▁H	-8.30075
▁Il	-8.30172
▁з	-8.30345
在	-8.30393
4	-8.30495
▁ve	-8.30889
um	-8.30948
ci	-8.31039
il	-8.31235
ul	-8.31586
на	-8.31726
ko	-8.32344
▁R	-8.32535
人	-8.33388
▁dans	-8.33856
▁до	-8.34066
▁che	-8.34208
▁се	-8.34788
el	-8.35013
ca	-8.35225
man	-8.35358
▁је	-8.35426
▁te	-8.35444
▁das	-8.35503
「	-8.35532
▁Observations	-8.35657
▁so	-8.35696
▁24	-8.36432
▁8	-8.36846
▁és	-8.37034
と	-8.37077
ة	-8.37338
▁2000	-8.37718
▁til	-8.38044
▁um	-8.3827
R	-8.38362
ge	-8.38647
ов	-8.39219
▁7	-8.3925
ó	-8.3935
▁var	-8.39605
▁і	-8.40245
▁re	-8.4033
▁Y	-8.40333
▁ein	-8.4107
▁com	-8.41137
si	-8.41172
ce	-8.41292
의	-8.41313
▁è	-8.41505
▁Panoramas	-8.4224
▁Viewfinder	-8.4226
▁не	-8.42592
v	-8.43096
▁palibot	-8.43245
by	-8.43269
▁it	-8.43413
▁dem	-8.43696
ur	-8.43961
▁от	-8.44085
ny	-8.44138
▁gikan	-8.442
▁15	-8.44418
大	-8.4491
▁9	-8.44999
”	-8.45271
▁han	-8.45649
▁من	-8.45938
▁nasod	-8.46708
▁30	-8.47393
▁yang	-8.47677
▁or	-8.47698
om	-8.47719
▁une	-8.47834
▁son	-8.48157
x	-8.48185
▁zu	-8.4889
5	-8.4933
▁14	-8.49347
B	-8.49435
▁della	-8.49667
▁ist	-8.50551
▁are	-8.50729
和	-8.50845
▁11	-8.50915
ه	-8.51571
▁ל	-8.52428
je	-8.52431
中	-8.52597
▁é	-8.52681
▁13	-8.52861
▁wurde	-8.52919
w	-8.52952
ba	-8.53162
▁New	-8.53301
с	-8.5377
▁were	-8.53781
▁С	-8.53997
▁из	-8.54017
ten	-8.54959
▁World	-8.55488
ng	-8.55511
ка	-8.55582
ment	-8.55922
ا	-8.56126
ga	-8.56233
ה	-8.56304
▁auf	-8.56392
▁sur	-8.56642
▁Life	-8.56726
▁2010	-8.56782
т	-8.57043
▁של	-8.5707
▁lo	-8.57079
ki	-8.57239
▁No	-8.58095
▁pour	-8.58167
or	-8.5863
den	-8.58832
▁milimetro	-8.58867
▁ne	-8.59062
▁qui	-8.59229
mi	-8.59922
▁las	-8.60079
ir	-8.60459
▁für	-8.60508
▁war	-8.60627
í	-8.61152
ek	-8.61246
▁18	-8.61524
是	-8.62199
▁which	-8.62261
6	-8.62465
);	-8.62833
ha	-8.62852
▁nel	-8.63647
org	-8.63726
▁am	-8.64293
▁là	-8.64328
▁25	-8.64393
be	-8.64713
▁Catalogue	-8.64899
ou	-8.64965
▁had	-8.65182
▁Species	-8.65227
▁У	-8.65347
▁c	-8.65788
7	-8.66505
ий	-8.66713
ого	-8.67376
та	-8.67559
8	-8.67843
▁του	-8.67851
ak	-8.67993
ang	-8.68007
▁е	-8.68432
но	-8.6857
▁και	-8.69088
▁да	-8.69402
к	-8.6964
▁Na	-8.69772
ste	-8.69775
·	-8.69929
▁به	-8.70496
est	-8.70604
D	-8.70605
▁post	-8.70928
ve	-8.71329
▁2009	-8.71887
DEM	-8.7202
▁în	-8.72022
ан	-8.72127
ke	-8.72373
▁Sa	-8.7258
▁It	-8.72969
։	-8.73404
lo	-8.73432
id	-8.73481
л	-8.73569
di	-8.74037
년	-8.74093
▁az	-8.74183
▁է	-8.74319
me	-8.74567
▁ar	-8.74593
▁3")	-8.74616
ro	-8.74748
",	-8.7483
▁film	-8.75029
▁her	-8.75103
nt	-8.75207
▁II	-8.75564
▁года	-8.76009
▁af	-8.76317
P	-8.76406
▁2007	-8.76609
ь	-8.76742
》	-8.76871
в	-8.76967
▁n	-8.77012
▁ver	-8.77088
▁2014	-8.7714
kan	-8.7748
上	-8.77874
▁eine	-8.7788
han	-8.77974
▁16	-8.78063
▁Se	-8.78098
▁San	-8.78141
ой	-8.7833
▁/	-8.78467
–	-8.7878
red	-8.78782
▁has	-8.79265
cc	-8.79321
ς	-8.79378
▁entre	-8.79386
▁over	-8.79667
▁از	-8.79958
▁Al	-8.80305
ben	-8.80373
을	-8.80557
▁sich	-8.80566
co	-8.80604
▁bulan	-8.8096
▁kasarangan	-8.81052
im	-8.81075
▁во	-8.81095
▁од	-8.81269
▁Z	-8.81763
▁also	-8.81782
▁dos	-8.82201
sa	-8.82872
▁ma	-8.83071
ada	-8.83133
▁(1	-8.83149
▁к	-8.83149
▁при	-8.83175
▁Po	-8.83262
▁men	-8.83336
ik	-8.83434
▁pro	-8.83436
ի	-8.83486
▁data	-8.83569
ku	-8.83845
10	-8.83955
G	-8.84097
▁mm	-8.8422
▁pa	-8.84283
▁har	-8.84372
K	-8.84698
▁all	-8.84773
有	-8.8482
com	-8.84958
▁А	-8.85213
▁os	-8.85242
9	-8.8576
▁'	-8.85902
F	-8.86128
▁2008	-8.8649
▁det	-8.86661
▁database	-8.86697
▁finns	-8.86943
lar	-8.86994
ri	-8.87038
ים	-8.87104
ers	-8.87244
ą	-8.87327
이	-8.87354
▁era	-8.87506
ton	-8.88026
▁kilometro	-8.88058
H	-8.88143
▁ser	-8.88226
一	-8.88422
▁mga	-8.88561
▁26	-8.88794
ban	-8.88942
ho	-8.89096
ver	-8.89191
».	-8.89312
▁not	-8.89507
не	-8.89949
ни	-8.89987
▁aus	-8.90017
▁voor	-8.90026
▁के	-8.90102
▁Checklist	-8.90275
▁một	-8.90397
à	-8.90506
ndo	-8.90616
▁met	-8.90797
し	-8.90845
▁2013	-8.90892
ו	-8.90973
した	-8.91052
▁și	-8.91118
▁та	-8.91121
á	-8.91426
▁2012	-8.91615
▁dari	-8.91619
▁ge	-8.92132
▁ur	-8.92198
ת	-8.9221
am	-8.92617
tu	-8.92657
▁bahin	-8.92977
▁Er	-8.93148
ant	-8.93522
▁gi	-8.93726
▁Der	-8.9377
д	-8.94013
에	-8.94051
▁first	-8.94124
▁г	-8.94149
ov	-8.94168
T	-8.94199
▁uma	-8.94522
▁22	-8.9456
▁và	-8.94758
W	-8.94808
ter	-8.94832
ya	-8.95044
▁“	-8.95229
ів	-8.95506
N	-8.95663
▁John	-8.95792
ки	-8.95896
▁UK	-8.96247
ine	-8.96382
land	-8.96475
ю	-8.96588
ت	-8.96635
▁Be	-8.96756
L	-8.97199
ات	-8.97294
za	-8.97305
▁roku	-8.97357
了	-8.97382
I	-8.97514
их	-8.97535
go	-8.97633
▁b	-8.97651
▁2006	-8.97772
▁ou	-8.98367
▁but	-8.98399
▁foi	-8.98579
O	-8.98583
▁מ	-8.98687
▁م	-8.991
ad	-8.99121
▁Les	-8.99176
ej	-8.99379
▁=	-8.99396
▁17	-8.99667
▁Rainfall	-8.9967
▁2015	-8.9968
▁[	-8.99785
nawan	-9.00128
▁су	-9.00162
▁pe	-9.00247
▁pre	-9.00401
▁21	-9.00696
▁non	-9.00986
▁ki	-9.01047
12	-9.01102
▁ITIS	-9.01225
▁2012.	-9.01471
▁their	-9.01853
▁της	-9.02085
▁University	-9.02256
子	-9.02311
▁ب	-9.02348
der	-9.02387
J	-9.0245
▁của	-9.02485
io	-9.02742
ina	-9.03263
▁Kirk	-9.03693
▁ke	-9.03759
▁g	-9.03774
The	-9.03899
ów	-9.04061
ung	-9.04115
র	-9.04267
▁ko	-9.0433
▁19	-9.0437
nya	-9.0451
▁bis	-9.04518
ия	-9.04561
ju	-9.04644
▁Orrell	-9.04705
▁iz	-9.04816
▁me	-9.05002
ي	-9.0527
ach	-9.05296
▁St	-9.05421
▁eta	-9.05724
▁Re	-9.06232
▁است	-9.06277
▁Enero	-9.06315
2.	-9.06372
▁avec	-9.06451
為	-9.06549
▁się	-9.06574
ado	-9.06764
▁amb	-9.06796
р	-9.06861
от	-9.07066
ية	-9.07247
▁2016	-9.07468
▁το	-9.0754
11	-9.0764
▁its	-9.07825
▁On	-9.07836
que	-9.07871
»,	-9.08336
▁ad	-9.0835
ler	-9.08484
!	-9.0886
ĕ	-9.08974
ла	-9.09128
▁download	-9.09128
ist	-9.09164
▁được	-9.0925
▁uit	-9.09735
ry	-9.09781
▁ir	-9.09872
▁who	-9.09928
▁23	-9.09965
山	-9.09978
▁2000:	-9.10323
ј	-9.10439
▁Annual	-9.106
▁updated	-9.10629
ok	-9.10872
ли	-9.11522
▁ta	-9.11758
▁bug	-9.11778
▁Reading	-9.11793
▁trong	-9.12075
du	-9.12129
▁ulohan	-9.12499
ze	-9.12703
▁nach	-9.12742
▁bei	-9.12768
▁co	-9.12818
은	-9.12836
ot	-9.12875
▁York	-9.1288
▁one	-9.12882
▁М	-9.12974
는	-9.13105
村	-9.13119
▁under	-9.13352
ation	-9.13502
▁have	-9.13565
为	-9.13639
▁о	-9.1376
▁Bourgoin	-9.13805
ها	-9.13866
▁Pagli	-9.14186
不	-9.14363
▁که	-9.14386
▁Mer	-9.14464
то	-9.14534
▁Bailly	-9.14606
▁algoritmo	-9.14712
▁К	-9.14765
ен	-9.14772
▁Baillargeon	-9.14833
▁Roskov	-9.14842
▁את	-9.14879
]	-9.14948
▁2002	-9.15138
▁dat	-9.15197
▁2005	-9.15206
▁qu	-9.15222
▁parte	-9.15513
ш	-9.15749
▁anaa	-9.15764
▁dinhi	-9.1577
▁100	-9.15771
▁bi	-9.1583
ahaboga	-9.1635
部	-9.16409
of	-9.16431
gi	-9.16558
▁На	-9.1672
ts	-9.16758
ji	-9.16877
▁man	-9.17076
ن	-9.17134
▁este	-9.17386
▁alla	-9.17527
men	-9.17539
г	-9.17634
ner	-9.17934
ren	-9.18099
▁fra	-9.18518
▁28	-9.18535
▁As	-9.18649
ic	-9.18839
市	-9.1892
▁two	-9.19018
▁ya	-9.19347
▁2004	-9.19385
▁pag	-9.19475
▁про	-9.19536
▁со	-9.1954
▁door	-9.19732
地	-9.19852
▁this	-9.19907
する	-9.1997
ica	-9.20028
《	-9.20156
▁të	-9.20321
▁månaden	-9.20455
▁más	-9.20509
▁september	-9.20562
י	-9.20617
ent	-9.20974
▁году	-9.21007
ü	-9.21086
▁fue	-9.21256
ción	-9.21358
▁bir	-9.21399
▁yn	-9.21466
mo	-9.21477
下	-9.21597
▁में	-9.21727
▁ligger	-9.21749
ista	-9.21851
出	-9.2192
以	-9.22248
▁ت	-9.22403
▁gitas	-9.22406
—	-9.22514
▁nederbörd	-9.22605
des	-9.22654
▁part	-9.22984
▁trakten	-9.22998
ę	-9.23093
▁для	-9.23129
▁ו	-9.23138
ò	-9.23409
▁auch	-9.23443
から	-9.23644
월	-9.23747
▁pod	-9.23809
م	-9.23813
▁ce	-9.23856
▁ca	-9.24094
▁2017	-9.24153
▁cu	-9.24383
ahimutang	-9.24386
』	-9.24422
▁Geonames	-9.24458
?	-9.24477
▁din	-9.24506
▁f	-9.24565
も	-9.24624
▁Con	-9.24634
́	-9.24804
▁năm	-9.24959
▁Land	-9.25052
▁GeoNames	-9.25053
pa	-9.25084
▁plus	-9.25236
▁Data	-9.25302
之	-9.25407
▁species	-9.25443
▁Set	-9.25449
ը	-9.25453
▁על	-9.25643
▁Index	-9.25672
や	-9.25724
▁runt	-9.25736
로	-9.25743
▁To	-9.25762
名	-9.2583
ig	-9.25947
son	-9.2602
ty	-9.26027
▁По	-9.26106
mente	-9.26123
ut	-9.26353
nu	-9.2639
▁Si	-9.26488
ות	-9.26527
▁sie	-9.26569
▁Es	-9.26611
vi	-9.26669
▁ng	-9.26787
▁có	-9.2693
▁pas	-9.27058
zi	-9.27147
://	-9.27304
▁है	-9.27378
▁dell	-9.27451
▁Me	-9.27623
▁Un	-9.27691
▁Co	-9.27821
▁Kalkula	-9.27842
V	-9.27864
▁seu	-9.27875
го	-9.28186
▁2001	-9.28206
▁1.	-9.28243
가	-9.28267
▁27	-9.28372
ей	-9.28487
да	-9.28558
▁American	-9.2856
▁been	-9.2859
▁X	-9.28668
jo	-9.28875
bo	-9.28893
▁amihanan	-9.28956
wa	-9.29041
au	-9.29094
▁familia	-9.29236
▁can	-9.29464
▁sua	-9.29557
п	-9.29681
新	-9.29708
▁Per	-9.29769
ата	-9.29786
本	-9.29932
ами	-9.30023
▁(2011).	-9.30042
▁الم	-9.30377
▁System	-9.30546
道	-9.3061
▁ex	-9.30702
▁2016.	-9.30706
▁على	-9.3071
▁klima	-9.30744
sch	-9.30914
sen	-9.31281
cu	-9.31328
gen	-9.31363
▁ut	-9.31425
he	-9.31435
田	-9.31551
▁National	-9.31552
分	-9.31726
ス	-9.31766
q	-9.31973
▁album	-9.32123
ning	-9.3216
▁sin	-9.32169
une	-9.32173
▁mais	-9.32195
▁pada	-9.32279
▁från	-9.32424
▁Los	-9.32602
▁world	-9.32605
会	-9.32938
▁این	-9.33024
sta	-9.33082
ski	-9.33253
▁meter	-9.33351
▁år	-9.33514
生	-9.33787
bugnaw	-9.338
▁över	-9.33889
▁Man	-9.33903
ва	-9.3392
▁ab	-9.34098
▁са	-9.34104
án	-9.34179
agway	-9.34625
▁2003	-9.3464
▁fu	-9.34661
lik	-9.3497
被	-9.34983
ً	-9.34994
▁tra	-9.35054
家	-9.35102
are	-9.3543
▁May	-9.3553
者	-9.35646
ska	-9.3574
▁habagatan	-9.35751
일	-9.35805
ет	-9.35806
▁29	-9.35856
ում	-9.35924
ru	-9.36204
▁zum	-9.36236
ні	-9.36244
ж	-9.36273
西	-9.3639
▁History	-9.3639
法	-9.36441
po	-9.36567
ах	-9.36683
▁м	-9.36735
▁h	-9.37189
▁werd	-9.37218
те	-9.37307
з	-9.37433
lu	-9.37628
▁einer	-9.37634
ata	-9.37873
▁ibabaw	-9.38115
▁1999	-9.38261
南	-9.3834
▁come	-9.3837
前	-9.38465
▁Mar	-9.38483
ita	-9.38488
▁doi	-9.38505
▁dia	-9.3852
後	-9.38626
▁dal	-9.38734
न	-9.38784
▁Han	-9.38857
iz	-9.38931
를	-9.39064
▁《	-9.39155
è	-9.3917
▁United	-9.39179
▁%	-9.39362
les	-9.39381
ти	-9.39497
用	-9.39536
▁sobre	-9.39558
▁را	-9.39949
α	-9.3998
▁Press	-9.40092
ana	-9.40199
▁την	-9.40311
である	-9.40381
▁Nicolson	-9.40429
▁genus	-9.40491
▁sont	-9.40509
ите	-9.4064
ego	-9.40771
▁dei	-9.40788
ми	-9.40796
bi	-9.40812
б	-9.40825
▁50	-9.40905
▁oli	-9.40931
第	-9.40978
га	-9.41013
行	-9.4103
ske	-9.41152
ní	-9.41197
20	-9.41269
ol	-9.41473
▁mai	-9.41534
▁Im	-9.41536
▁Di	-9.41585
三	-9.41718
ის	-9.41733
▁под	-9.41768
▁mas	-9.41798
ہ	-9.41822
น	-9.41961
hi	-9.41975
né	-9.42043
及	-9.42062
▁metros	-9.42174
ʻ	-9.42213
per	-9.42299
▁September	-9.42321
▁County	-9.42343
initon	-9.42387
▁Su	-9.42455
▁zijn	-9.42472
い	-9.42472
▁werden	-9.42473
ма	-9.42476
▁up	-9.42484
initan	-9.42529
ного	-9.42612
▁Saint	-9.42726
ven	-9.42851
▁after	-9.42899
▁t	-9.42928
高	-9.43095
▁në	-9.43246
▁და	-9.43329
им	-9.43502
és	-9.43662
های	-9.43727
等	-9.43934
▁31	-9.4399
▁км	-9.4419
sk	-9.44198
り	-9.44273
▁Ouvrard	-9.44344
▁با	-9.44467
▁Bisby	-9.44636
ที่	-9.44741
nie	-9.44744
=	-9.44763
▁Da	-9.4486
所	-9.44863
ron	-9.44957
▁för	-9.44987
▁aan	-9.45049
▁durch	-9.45149
▁Do	-9.4516
▁mao	-9.45194
▁Am	-9.45234
▁other	-9.45309
▁time	-9.45366
▁till	-9.45447
小	-9.4557
▁fa	-9.45583
ā	-9.45631
▁Mexico	-9.45686
▁über	-9.45783
▁pri	-9.45901
ken	-9.45974
ção	-9.46021
▁ao	-9.46027
▁από	-9.4613
▁Ver	-9.4624
ž	-9.46327
▁Michael	-9.46521
▁http	-9.46538
▁ل	-9.46541
X	-9.46589
▁0	-9.46692
▁Das	-9.46767
ç	-9.46879
30	-9.46883
art	-9.46948
▁sulod	-9.47312
ih	-9.47327
ini	-9.4745
ая	-9.47514
国	-9.47589
長	-9.47661
▁kan	-9.47677
ი	-9.4773
▁եւ	-9.47763
▁ble	-9.47952
▁με	-9.48062
mer	-9.48106
ulan	-9.4823
▁ed	-9.48268
ky	-9.48336
ी	-9.4853
▁nu	-9.48722
dan	-9.48753
▁Za	-9.48819
水	-9.49135
▁dalam	-9.49156
▁О	-9.49225
▁bu	-9.49378
ato	-9.49382
the	-9.49409
tor	-9.49527
▁ter	-9.49537
15	-9.49648
▁Det	-9.49726
▁mu	-9.49768
▁ini	-9.49787
于	-9.50269
▁Ab	-9.50331
▁into	-9.50396
Species	-9.50507
▁fan	-9.50603
な	-9.50608
▁sub	-9.50626
▁III	-9.50629
ку	-9.50711
▁ngan	-9.50846
ů	-9.51026
18	-9.51028
ú	-9.51206
ч	-9.51222
於	-9.51259
▁li	-9.5139
▁000	-9.51427
▁dengan	-9.51634
▁r	-9.5164
斯	-9.51741
tes	-9.51801
ных	-9.51845
vo	-9.51989
tion	-9.52109
▁від	-9.52406
ა	-9.52419
▁new	-9.52441
▁jako	-9.52898
▁40	-9.5329
ion	-9.53374
▁П	-9.53378
天	-9.53535
ä	-9.53656
Z	-9.53753
▁they	-9.53787
▁höjd	-9.54017
▁За	-9.54102
▁she	-9.542
ем	-9.54309
pe	-9.54588
▁William	-9.54625
▁Ko	-9.54861
▁So	-9.54899
ger	-9.54908
▁Ma	-9.54919
ley	-9.55017
kasadpan	-9.55026
▁ra	-9.55063
mu	-9.55153
ной	-9.55184
▁Д	-9.55202
▁tot	-9.55208
▁nicht	-9.55212
▁Bu	-9.5522
16	-9.55224
berg	-9.55256
َ	-9.55336
ai	-9.55361
▁Mission	-9.55465
▁City	-9.55543
ان	-9.55734
▁был	-9.5575
ದ	-9.5577
文	-9.55794
▁For	-9.5584
ο	-9.5614
▁els	-9.56224
▁Paris	-9.56269
▁کے	-9.56313
▁sus	-9.5649
ida	-9.56611
ของ	-9.56739
では	-9.56843
▁1998	-9.56848
▁ingår	-9.56869
25	-9.56883
時	-9.56922
▁Em	-9.56928
ն	-9.57111
として	-9.57134
_	-9.57213
pi	-9.57307
):	-9.57321
▁vor	-9.57329
▁Du	-9.57343
▁2.	-9.57389
▁month	-9.57692
una	-9.57733
▁ob	-9.57784
▁forma	-9.57975
德	-9.58025
▁(18	-9.58065
▁Pro	-9.58138
▁aux	-9.58313
く	-9.58329
▁France	-9.58399
▁1990	-9.58454
▁və	-9.58504
ої	-9.58559
▁Paul	-9.58589
idae	-9.58791
tal	-9.58821
▁này	-9.58909
tar	-9.58929
多	-9.58953
▁ett	-9.58995
bu	-9.59073
▁sind	-9.59181
而	-9.59185
明	-9.59218
▁об	-9.59282
▁Mo	-9.5944
ami	-9.5947
ity	-9.59502
州	-9.59515
ии	-9.5956
▁more	-9.596
▁å	-9.59641
▁dagat	-9.5968
▁ي	-9.59743
▁Ge	-9.59744
▁att	-9.59787
▁року	-9.60043
▁map	-9.6009
▁zur	-9.60099
▁Lo	-9.603
▁tre	-9.60463
▁Sciences	-9.6051
▁И	-9.6055
▁August	-9.60559
ate	-9.60561
hà	-9.60603
ს	-9.60817
▁This	-9.61011
nes	-9.61177
zione	-9.6124
ный	-9.61329
17	-9.61389
ра	-9.61414
▁out	-9.61537
ның	-9.61634
▁Г	-9.61683
ين	-9.61695
▁mi	-9.61725
www	-9.61731
ssa	-9.61784
▁här	-9.61797
金	-9.61911
ez	-9.61951
▁meg	-9.62197
▁ў	-9.62229
▁Т	-9.62251
▁Ba	-9.62392
ian	-9.62414
kin	-9.62438
og	-9.62443
る	-9.62473
▁ש	-9.6254
王	-9.62555
▁delen	-9.6264
▁bo	-9.62681
▁ze	-9.62681
川	-9.62766
uk	-9.62774
由	-9.62811
与	-9.62884
特	-9.62908
▁War	-9.62925
▁International	-9.63005
14	-9.6301
illa	-9.63029
▁einem	-9.63099
min	-9.63129
ker	-9.63219
▁2014.	-9.63263
das	-9.6328
回	-9.63289
mar	-9.63455
▁lui	-9.6347
ii	-9.63497
▁2018	-9.63526
▁Retrieved	-9.6361
▁då	-9.63675
▁các	-9.63707
▁Ta	-9.63859
ber	-9.63978
▁Mas	-9.63985
ին	-9.64018
▁She	-9.64128
▁Ha	-9.6416
한	-9.64224
到	-9.64235
ě	-9.64358
▁car	-9.64416
▁Park	-9.64453
▁nella	-9.64489
原	-9.64492
▁1996	-9.64725
ко	-9.64726
海	-9.64968
리	-9.64996
▁landet	-9.6502
▁untuk	-9.65096
▁이	-9.65131
ア	-9.65147
alakip	-9.65221
ert	-9.65245
sidlakan	-9.65317
入	-9.65348
▁wird	-9.65367
安	-9.65502
U	-9.65523
chi	-9.65591
Tropical	-9.65668
▁nahil	-9.65722
▁1997	-9.65772
▁का	-9.65833
up	-9.65919
▁2010.	-9.6593
▁delle	-9.66025
他	-9.6603
后	-9.6606
▁Az	-9.66089
▁Jean	-9.66239
手	-9.66298
▁mar	-9.66331
▁US	-9.66349
▁Population	-9.66419
位	-9.6642
▁Li	-9.66548
ée	-9.66574
▁ber	-9.66576
dy	-9.66648
▁nie	-9.66711
ster	-9.66835
▁Ar	-9.66882
▁when	-9.66883
北	-9.6694
▁Ginku	-9.66944
fa	-9.66979
за	-9.67088
▁David	-9.67143
era	-9.67151
ria	-9.6719
lin	-9.67269
事	-9.67459
에서	-9.67466
▁April	-9.67488
與	-9.67518
▁adalah	-9.67602
成	-9.67713
▁All	-9.67717
線	-9.67903
▁years	-9.67934
▁oder	-9.6794
ene	-9.67962
▁họ	-9.6798
dir	-9.68
able	-9.6811
▁due	-9.68129
ской	-9.68163
uppgifter	-9.68199
▁ved	-9.68261
▁matag	-9.68279
▁Monitoring	-9.68318
Algoritm	-9.68343
▁tuig	-9.68348
و	-9.68386
▁final	-9.68484
tra	-9.68603
▁ny	-9.68638
인	-9.68651
basaan	-9.68749
▁Användare	-9.68765
▁algoritmen	-9.68765
▁kinauga	-9.68773
ting	-9.68774
▁uska	-9.68785
Lsjbot	-9.68799
ло	-9.68868
▁hi	-9.68939
▁Robert	-9.6902
▁Film	-9.6904
▁TRMM	-9.69042
ud	-9.69176
ari	-9.69181
▁Model	-9.69186
44.	-9.69284
ý	-9.69346
▁West	-9.69394
con	-9.69429
▁کی	-9.69497
we	-9.69508
ца	-9.69621
『	-9.69623
▁kon	-9.69656
▁London	-9.69782
ат	-9.69845
ía	-9.6986
nik	-9.69888
che	-9.69912
át	-9.69984
内	-9.70032
ling	-9.70041
ش	-9.70059
▁later	-9.70225
化	-9.70272
▁would	-9.70293
▁де	-9.70295
▁की	-9.70304
hess	-9.70395
区	-9.70419
▁classification	-9.70499
▁Digital	-9.70636
bar	-9.7068
ம்	-9.70708
ile	-9.70726
gu	-9.70763
▁ulan	-9.70789
▁most	-9.70898
nd	-9.70953
.".	-9.71
城	-9.71069
外	-9.71078
ale	-9.71159
13	-9.71175
ab	-9.71224
力	-9.71294
會	-9.71305
▁estado	-9.71505
▁wie	-9.71607
▁nan	-9.71689
▁vy	-9.71698
dos	-9.71741
▁hini	-9.71806
د	-9.71814
▁havet	-9.71834
क	-9.7185
고	-9.7197
▁что	-9.72028
ende	-9.7205
▁»	-9.72069
された	-9.72098
▁States	-9.72155
利	-9.72165
▁climate	-9.72244
ля	-9.7228
1).	-9.72412
▁him	-9.72524
ram	-9.72583
里	-9.72659
克	-9.72694
▁tu	-9.7278
ima	-9.72963
公	-9.72972
ական	-9.72996
त	-9.73004
zo	-9.73044
net	-9.73044
▁Lake	-9.73096
ну	-9.73117
ard	-9.73159
▁1994	-9.73255
▁Het	-9.73266
▁1995	-9.73307
▁З	-9.73307
▁été	-9.73392
▁ei	-9.73502
▁hij	-9.73506
▁11:	-9.73562
▁cho	-9.73771
ë	-9.73792
▁only	-9.73871
▁ziren	-9.73902
同	-9.74019
ų	-9.74218
ского	-9.74224
ura	-9.74277
▁إلى	-9.7431
ب	-9.7436
▁Van	-9.74399
号	-9.74414
ted	-9.74452
tan	-9.74501
▁що	-9.74661
де	-9.74763
▁1992	-9.74789
ele	-9.74809
性	-9.74862
én	-9.74879
&	-9.75002
▁più	-9.75262
▁alle	-9.75292
사	-9.75299
val	-9.7534
▁November	-9.75566
gar	-9.75753
作	-9.75759
ные	-9.75774
ano	-9.75848
▁At	-9.75939
▁па	-9.76031
▁subspecies	-9.76045
其	-9.76086
▁1980	-9.7621
ト	-9.76234
ei	-9.7625
▁vom	-9.7633
elle	-9.76337
ُ	-9.76368
과	-9.76407
ή	-9.76427
▁may	-9.76484
ando	-9.76487
き	-9.7655
fi	-9.76594
nia	-9.7663
科	-9.76638
▁where	-9.76685
21	-9.76774
ル	-9.76807
▁unter	-9.76856
▁South	-9.76913
ac	-9.76979
도	-9.76997
Geiger	-9.77109
ная	-9.77132
▁Fram	-9.77136
age	-9.77197
▁vol	-9.77228
Updated	-9.7723
var	-9.77234
gan	-9.77281
▁loài	-9.77327
ah	-9.77352
▁Peel	-9.77393
س	-9.7741
▁NGC	-9.77454
▁раз	-9.77521
▁Köppen	-9.7753
▁fin	-9.77598
▁Ny	-9.77605
▁1991	-9.77855
ali	-9.77868
也	-9.77951
ció	-9.78033
hu	-9.78047
▁Car	-9.7807
len	-9.78074
▁ο	-9.78146
ens	-9.78155
▁Ka	-9.78275
ם	-9.78286
ски	-9.78304
面	-9.78319
19	-9.78345
ій	-9.78394
ό	-9.78571
野	-9.78633
▁James	-9.78646
▁Hulyo	-9.78655
ación	-9.78759
-11-16	-9.78809
ier	-9.78866
š	-9.78903
▁kasadpan	-9.78907
ою	-9.78957
▁sono	-9.79026
▁ginhu	-9.79085
ม	-9.79086
▁Finlayson	-9.79122
▁1633-16	-9.79237
zu	-9.79255
▁comme	-9.79255
▁Hydrology	-9.79284
ikuha	-9.79301
33-2007	-9.79334
:10.5194/	-9.79337
cha	-9.79406
ം	-9.79433
La	-9.79572
▁Go	-9.79592
▁dels	-9.79634
η	-9.79663
▁как	-9.79664
▁between	-9.79669
▁1993	-9.797
ون	-9.79762
▁during	-9.79819
ня	-9.79967
▁familjen	-9.79979
ischen	-9.79988
▁وال	-9.80101
ere	-9.80195
▁т	-9.80205
▁Bar	-9.80225
▁пере	-9.80292
▁Pe	-9.80421
ใน	-9.80453
▁Os	-9.8047
自	-9.8047
▁x	-9.80559
合	-9.8069
22	-9.80717
▁River	-9.8077
▁или	-9.80796
▁η	-9.80821
▁go	-9.80874
▁Waray	-9.80917
ino	-9.80944
ल	-9.80965
ell	-9.80993
路	-9.81047
▁elevation	-9.81078
ran	-9.81079
let	-9.81095
ella	-9.81121
24	-9.81169
cy	-9.81243
ый	-9.8125
▁Od	-9.8129
ł	-9.81323
▁nakalista	-9.81367
ศ	-9.81466
ке	-9.81523
▁60	-9.81574
▁Tu	-9.81589
東	-9.8159
主	-9.81689
▁थ्व	-9.81701
▁School	-9.81701
▁einen	-9.81744
स	-9.81791
ле	-9.81907
od	-9.81923
た	-9.81943
▁huvudstaden	-9.82084
▁Ein	-9.82137
定	-9.82314
ului	-9.8249
ili	-9.8252
ам	-9.82524
日本	-9.82573
ně	-9.82609
▁Washington	-9.82675
立	-9.82688
▁gran	-9.82777
са	-9.82862
՝	-9.82867
스	-9.82872
▁لل	-9.83079
iti	-9.83086
27	-9.83117
sko	-9.83265
ova	-9.8334
ische	-9.83368
них	-9.83374
▁such	-9.83386
nin	-9.83391
ロ	-9.83425
ие	-9.83432
räknat	-9.83462
lan	-9.83483
kar	-9.83546
▁juli	-9.83574
ク	-9.83667
ye	-9.83769
nen	-9.83792
С	-9.83854
▁used	-9.83878
▁contra	-9.83878
▁blev	-9.84091
美	-9.84168
▁gli	-9.84204
重	-9.8426
으로	-9.8435
ks	-9.84354
ati	-9.8436
元	-9.84382
31	-9.84429
ix	-9.84476
▁vun	-9.84504
uje	-9.84591
Y	-9.84602
至	-9.84651
▁about	-9.84705
ά	-9.84762
ici	-9.84809
▁State	-9.84811
▁और	-9.8487
dul	-9.84886
▁januari	-9.84925
▁године	-9.84941
▁made	-9.84958
▁lalawigan	-9.84989
op	-9.85019
▁Or	-9.8505
▁να	-9.85298
▁Peter	-9.85305
▁kay	-9.85339
▁three	-9.85361
ть	-9.85428
ite	-9.85515
다	-9.85522
▁میں	-9.85523
sten	-9.85526
▁(2015-06-2	-9.85618
ham	-9.8569
▁George	-9.8573
▁Par	-9.85737
▁Б	-9.85747
次	-9.8594
dor	-9.85952
▁người	-9.86005
▁ses	-9.86009
tur	-9.86017
23	-9.86093
▁kada	-9.86168
buah	-9.86201
▁ku	-9.86216
ել	-9.86312
▁durante	-9.86331
या	-9.86373
▁से	-9.86473
▁egy	-9.86501
mann	-9.86615
▁general	-9.8667
▁Val	-9.86678
▁2015.	-9.86693
▁care	-9.86874
ин	-9.86947
拉	-9.86955
▁3.	-9.86989
任	-9.87073
▁wa	-9.87197
▁1970	-9.87277
▁છે	-9.8728
▁sumala	-9.87329
▁dhe	-9.87351
▁Charles	-9.87355
▁Bronnen	-9.87372
▁second	-9.87413
so	-9.87428
deltemperature	-9.87496
ón	-9.87502
体	-9.8753
시	-9.87616
▁Årsme	-9.8763
▁kallaste	-9.87651
▁Red	-9.87681
▁Maria	-9.87692
▁club	-9.8771
▁varmaste	-9.87772
代	-9.878
▁medeltemperatur	-9.87807
▁nord	-9.87843
▁Nel	-9.87852
ых	-9.87882
▁Bo	-9.87924
学	-9.87926
fr	-9.87991
ante	-9.88012
▁Her	-9.88014
▁deux	-9.88073
▁My	-9.88089
▁;	-9.88168
▁एक	-9.88224
ensis	-9.88244
▁כ	-9.88245
▁TV	-9.88309
res	-9.88322
one	-9.88326
su	-9.88493
平	-9.88508
ão	-9.88543
▁anche	-9.88548
▁més	-9.88609
▁او	-9.88638
▁släktet	-9.88732
▁than	-9.88742
▁referenties	-9.88841
ц	-9.88955
เป็น	-9.89042
▁Dr	-9.89057
ap	-9.89132
▁noten	-9.89334
ে	-9.8941
▁beskrevs	-9.89521
▁millimeter	-9.89606
ラ	-9.89671
▁1989	-9.89728
۔	-9.89735
▁Cover	-9.89757
町	-9.89762
▁tahun	-9.89787
ก	-9.898
▁rehiyon	-9.89811
ны	-9.89845
28	-9.8989
지	-9.89985
▁Ke	-9.8999
ala	-9.90038
lukop	-9.90044
正	-9.90102
ন	-9.90138
ের	-9.9014
▁ri	-9.90229
▁underarter	-9.9023
▁Ne	-9.90266
▁500	-9.90337
▁Н	-9.90457
▁godine	-9.90457
)。	-9.90581
▁+	-9.90586
▁آن	-9.90587
▁یک	-9.90592
▁Op	-9.906
▁Inga	-9.90657
車	-9.9066
ок	-9.90661
▁total	-9.90701
▁place	-9.90766
▁Te	-9.90792
▁March	-9.90794
加	-9.90873
ym	-9.90903
▁wurden	-9.90922
▁North	-9.90924
”.	-9.90967
▁team	-9.90982
▁wy	-9.9103
▁ten	-9.91044
와	-9.91058
▁nem	-9.91123
▁Art	-9.91237
▁(*	-9.9126
र	-9.91287
▁eller	-9.91297
▁Classification	-9.91309
기	-9.91386
vis	-9.9139
29	-9.91418
尔	-9.91456
リ	-9.91477
▁Jan	-9.91485
▁public	-9.91494
▁land	-9.91507
fe	-9.91596
▁fer	-9.91684
▁Pa	-9.91757
▁genomsnitt	-9.91764
▁کا	-9.91786
▁á	-9.91806
軍	-9.91828
▁General	-9.91839
ara	-9.91846
▁zen	-9.91877
snederbörd	-9.91892
enomsnittlig	-9.9193
▁torrast	-9.91946
▁regniga	-9.91953
sh	-9.91961
▁fel	-9.92002
长	-9.92039
nek	-9.9204
▁bat	-9.92105
ique	-9.92135
ї	-9.92139
▁200	-9.92225
▁его	-9.92256
▁sebagai	-9.92356
▁hat	-9.92409
А	-9.92454
▁known	-9.925
二	-9.92508
▁τον	-9.92539
zen	-9.92641
ck	-9.92656
▁mis	-9.92844
▁Santa	-9.92871
▁הוא	-9.92872
ний	-9.92889
▁listade	-9.9289
米	-9.92923
全	-9.92968
ais	-9.9299
には	-9.93044
▁sidlakan	-9.931
▁он	-9.93191
▁invånare	-9.93271
▁но	-9.93305
ros	-9.93322
▁kwadrado	-9.93351
都	-9.93377
▁some	-9.93404
通	-9.93418
del	-9.93501
か	-9.93512
島	-9.93573
ска	-9.93672
して	-9.93678
▁سال	-9.93711
ito	-9.93712
▁Bi	-9.93716
ius	-9.93721
機	-9.9375
ı	-9.93768
tro	-9.93804
▁jest	-9.93806
▁నుండి	-9.93892
▁fi	-9.93938
ies	-9.9408
▁Is	-9.9427
台	-9.94272
カ	-9.94278
cia	-9.94302
爾	-9.94343
bel	-9.94369
kvadratkilometer	-9.94401
▁Har	-9.94415
▁yuta	-9.94461
ett	-9.94496
for	-9.94572
тан	-9.94612
▁vo	-9.9473
可	-9.94797
▁†	-9.94849
▁dapit	-9.94851
rat	-9.94857
се	-9.94876
."	-9.94904
गु	-9.9497
▁League	-9.95002
▁population	-9.9503
▁familie	-9.95143
▁1988	-9.95221
dal	-9.95229
어	-9.95232
sel	-9.95263
ville	-9.95272
社	-9.95275
▁Ce	-9.95284
ци	-9.95385
lla	-9.95419
省	-9.95513
MODIS	-9.9558
▁Para	-9.95592
▁Mai	-9.95593
ret	-9.95618
▁suo	-9.95692
▁των	-9.95774
fer	-9.95828
▁που	-9.95872
ّ	-9.95907
ರ	-9.95916
tik	-9.95927
eur	-9.95954
ire	-9.96006
ane	-9.96021
ం	-9.96038
▁Estados	-9.96053
pen	-9.96057
局	-9.96087
tas	-9.96128
26	-9.96195
▁Berlin	-9.96199
ola	-9.9634
▁Hapit	-9.96384
ник	-9.9647
▁local	-9.96477
▁Unidos	-9.96489
▁2011.	-9.96507
ال	-9.96539
神	-9.9658
ido	-9.96672
▁Nach	-9.96675
▁Thomas	-9.96697
sti	-9.96716
▁Martin	-9.96717
格	-9.96725
▁Vi	-9.96814
▁Una	-9.96882
ं	-9.96922
tel	-9.96998
ನ	-9.97034
ium	-9.97046
eg	-9.97095
ба	-9.97097
▁32	-9.97189
car	-9.97205
tus	-9.97262
▁Don	-9.97269
タ	-9.97343
nak	-9.97383
▁dass	-9.97492
ani	-9.97498
▁well	-9.97594
▁form	-9.97678
0	-9.97735
▁Grand	-9.97776
ся	-9.97783
▁naam	-9.97788
▁ba	-9.97789
मा	-9.97796
▁band	-9.97914
▁học	-9.97966
时	-9.97968
ila	-9.97973
ית	-9.98051
▁และ	-9.98096
▁як	-9.98174
▁British	-9.98211
▁أن	-9.98254
хь	-9.98262
ika	-9.98271
km	-9.98275
▁...	-9.98284
▁prima	-9.98285
ados	-9.98285
kon	-9.98286
ero	-9.98303
lich	-9.98307
▁India	-9.98317
▁far	-9.98376
▁average	-9.98419
女	-9.98431
▁Je	-9.98469
ков	-9.98516
▁Nord	-9.98634
▁You	-9.98673
▁base	-9.98689
駅	-9.98702
ych	-9.98735
ure	-9.98767
▁vid	-9.98807
ico	-9.98892
▁ont	-9.98896
issa	-9.989
▁『	-9.98911
▁cm	-9.98935
ْ	-9.98968
▁को	-9.99018
木	-9.99058
▁Star	-9.99073
方	-9.9912
集	-9.99129
aren	-9.9914
▁Va	-9.99183
▁Е	-9.99231
場	-9.99247
ft	-9.99275
國	-9.99327
▁1960	-9.99384
▁ю	-9.9947
ل	-9.99499
▁there	-9.99555
▁đầu	-9.9957
▁year	-9.99605
par	-9.99622
光	-9.99718
ع	-9.99826
ep	-9.99877
▁kom	-9.99885
▁Jahr	-9.99907
▁आ	-9.99962
▁merupakan	-10.0006
англ	-10.0012
▁being	-10.0012
ِ	-10.0033
ary	-10.0044
ν	-10.0044
▁nom	-10.0054
▁giha	-10.0064
▁serie	-10.007
▁nahimutangan	-10.0076
石	-10.0077
▁Can	-10.008
▁أ	-10.0092
▁Q	-10.0092
+	-10.0093
bogon	-10.0097
▁1986	-10.0103
af	-10.0106
▁sem	-10.0106
ム	-10.0118
▁became	-10.0122
▁season	-10.0124
▁اس	-10.0127
▁Ci	-10.0131
向	-10.0132
ien	-10.0134
▁radius	-10.0136
uri	-10.0136
▁بن	-10.0145
▁1987	-10.0146
▁ré	-10.0147
▁Love	-10.0148
▁IV	-10.015
ев	-10.0152
▁với	-10.0153
▁through	-10.0164
語	-10.0166
▁65	-10.0172
any	-10.0175
▁vi	-10.0177
▁inter	-10.0187
vin	-10.0189
ナ	-10.0192
▁fait	-10.0206
▁ga	-10.0209
▁ho	-10.0213
pakigb	-10.0221
tre	-10.0225
▁tawo	-10.023
▁tanan	-10.0232
▁45	-10.0235
▁kin	-10.0238
ын	-10.0243
み	-10.025
▁Density	-10.0254
ları	-10.0257
aria	-10.0278
▁35	-10.028
ил	-10.028
▁Sie	-10.0286
▁bij	-10.0287
▁original	-10.0289
▁अ	-10.0291
ล	-10.0294
nom	-10.0295
SEDA	-10.03
河	-10.0302
▁przez	-10.0303
ex	-10.0306
van	-10.0307
▁mo	-10.0316
ingkil	-10.032
▁Men	-10.0329
▁Ben	-10.0333
ice	-10.0338
isch	-10.0341
ा	-10.0351
ira	-10.0354
▁pay	-10.0355
ismo	-10.0358
म	-10.0373
▁cui	-10.0379
物	-10.0379
▁fost	-10.0382
ал	-10.0393
制	-10.0396
型	-10.0398
▁2013.	-10.0402
流	-10.0414
数	-10.0426
している	-10.0427
▁1984	-10.043
▁ch	-10.0435
ć	-10.0441
को	-10.0444
▁1945	-10.0446
ส	-10.0448
▁|	-10.046
ré	-10.0462
▁1982	-10.0462
▁व	-10.0468
▁Club	-10.0472
ند	-10.0493
▁tri	-10.0497
▁oleh	-10.05
line	-10.0503
ٔ	-10.0503
▁via	-10.0503
▁4.	-10.0516
č	-10.0517
vel	-10.052
▁Richard	-10.0524
▁Sam	-10.0529
▁ở	-10.0538
ში	-10.0539
▁στην	-10.0545
▁sud	-10.0551
▁Por	-10.0552
▁After	-10.0555
士	-10.0566
▁đã	-10.0569
▁soort	-10.0569
▁USA	-10.0576
▁ye	-10.0583
教	-10.0588
相	-10.0595
▁година	-10.0595
▁Pre	-10.0597
四	-10.0599
К	-10.0604
▁Mark	-10.0607
▁بر	-10.0607
林	-10.0612
▁June	-10.0625
ì	-10.064
官	-10.0642
대	-10.0642
▁ви	-10.0644
▁مع	-10.0652
ib	-10.0653
▁Stadt	-10.066
▁Creek	-10.0664
▁σε	-10.0667
▁noch	-10.0668
▁то	-10.0668
▁အ	-10.067
▁col	-10.0673
sur	-10.0688
▁including	-10.0689
ille	-10.0693
▁вы	-10.0697
度	-10.07
ın	-10.0703
▁pero	-10.0705
ige	-10.0706
▁για	-10.0707
▁años	-10.0707
ide	-10.0708
Q	-10.0714
星	-10.0717
▁long	-10.0717
tis	-10.0717
ова	-10.0719
理	-10.0721
▁won	-10.0724
▁name	-10.0728
лі	-10.0731
▁400	-10.0739
50	-10.0742
▁1985	-10.0743
▁lu	-10.0752
ná	-10.0752
amente	-10.0753
▁many	-10.0754
シ	-10.0763
▁plan	-10.0763
▁Lu	-10.0763
▁Mu	-10.0765
戦	-10.0768
馬	-10.0774
он	-10.0776
dar	-10.0784
ія	-10.0784
▁Au	-10.0785
▁will	-10.0788
-1	-10.0789
ри	-10.081
▁July	-10.0812
▁mö	-10.0818
ι	-10.082
kom	-10.0823
การ	-10.0829
ном	-10.0836
▁work	-10.0841
ф	-10.0841
▁sy	-10.0842
ский	-10.0842
▁kao	-10.0844
マ	-10.0848
▁عام	-10.0852
zy	-10.0855
▁inom	-10.0857
க்	-10.0861
ών	-10.0865
ق	-10.0866
े	-10.0867
▁ба	-10.0878
ド	-10.088
▁Database	-10.0884
ым	-10.0889
▁Europa	-10.0892
ر	-10.0905
ії	-10.0917
▁tak	-10.0917
▁Kon	-10.0918
▁school	-10.0921
ль	-10.0921
lle	-10.0922
ns	-10.0923
ด	-10.0936
ների	-10.0941
▁Tour	-10.0947
ಕ	-10.0953
nte	-10.0953
ena	-10.0959
▁Ku	-10.0961
區	-10.0962
▁Jo	-10.0973
▁cap	-10.0974
–19	-10.0974
ով	-10.0976
ง	-10.0991
2,	-10.0992
ча	-10.0993
▁ду	-10.0993
nej	-10.0996
但	-10.1002
▁пре	-10.1003
ক	-10.1004
▁1978	-10.1005
ар	-10.1007
ciones	-10.1009
▁Mi	-10.101
บ	-10.1013
▁ا	-10.1025
▁eerst	-10.1028
口	-10.1029
▁اور	-10.1038
asi	-10.1043
▁Music	-10.1043
▁ap	-10.1044
ava	-10.1045
▁Ja	-10.1053
▁pela	-10.1056
leg	-10.1061
iv	-10.1062
ance	-10.1067
▁koji	-10.1082
mes	-10.1084
▁nur	-10.1087
夫	-10.1098
▁then	-10.1107
ל	-10.1112
vat	-10.1123
コ	-10.1124
▁hasta	-10.1129
her	-10.1134
▁niini	-10.1135
met	-10.1135
ál	-10.1136
nde	-10.1147
▁המ	-10.1152
▁Ni	-10.1154
▁1983	-10.1159
▁στο	-10.116
ern	-10.1173
▁jo	-10.1193
比	-10.1195
音	-10.1198
▁area	-10.1204
▁esta	-10.1206
▁Mal	-10.1211
мен	-10.1215
และ	-10.1221
▁dalla	-10.1222
▁solo	-10.1232
▁Tor	-10.125
▁Vol	-10.1251
if	-10.1251
ε	-10.1252
ec	-10.1252
▁primer	-10.1253
▁grande	-10.1264
▁1979	-10.1276
▁before	-10.1279
▁state	-10.128
▁1975	-10.1282
書	-10.1285
don	-10.1288
nda	-10.129
建	-10.129
자	-10.1292
▁Ca	-10.1293
이다	-10.1294
rd	-10.1295
▁Museum	-10.1299
М	-10.131
▁single	-10.1313
▁hogy	-10.1313
▁mars	-10.1317
▁densidad	-10.1324
and	-10.133
40	-10.1331
▁volt	-10.1335
В	-10.1336
▁1973	-10.1337
▁nos	-10.1337
yo	-10.1343
▁ti	-10.1362
▁against	-10.1362
té	-10.1366
▁1968	-10.137
▁number	-10.1375
nih	-10.138
▁Chi	-10.1385
व	-10.1386
тер	-10.139
▁‘	-10.1393
ama	-10.14
▁Cup	-10.1402
▁1972	-10.1403
▁waren	-10.1404
▁ook	-10.1406
ism	-10.1411
ula	-10.1416
▁һәм	-10.1424
є	-10.1426
▁series	-10.1427
▁oraz	-10.1427
las	-10.1429
kel	-10.1431
▁lungsod	-10.1436
▁ما	-10.1438
球	-10.1441
wi	-10.1445
政	-10.1445
形	-10.1451
▁են	-10.1455
▁Х	-10.146
▁we	-10.1462
Г	-10.1464
▁dis	-10.1464
▁mot	-10.1467
ому	-10.1469
ovi	-10.1474
期	-10.1475
▁José	-10.1478
▁ning	-10.148
▁80	-10.1481
大学	-10.1483
▁1981	-10.1483
▁tres	-10.1488
ous	-10.1493
до	-10.1499
▁Nacional	-10.1504
站	-10.1505
▁people	-10.1508
工	-10.1508
▁sous	-10.1515
▁January	-10.1516
▁while	-10.1516
тар	-10.152
▁נ	-10.1522
ev	-10.1522
▁Cerro	-10.1525
ズ	-10.1527
-18	-10.1529
ую	-10.153
▁family	-10.153
▁수	-10.1537
▁stato	-10.1537
▁zwei	-10.154
对	-10.1552
48	-10.1554
▁Ber	-10.1557
▁mal	-10.1559
式	-10.1561
ser	-10.1561
ным	-10.1566
▁nome	-10.1569
▁Las	-10.1573
▁కి	-10.1576
▁300	-10.1586
%	-10.1589
無	-10.1592
▁both	-10.1595
▁vez	-10.1598
ों	-10.1611
ona	-10.1626
▁1974	-10.1636
”,	-10.164
▁అ	-10.1642
ได้	-10.1642
▁Society	-10.1643
▁ఉన్నాయి	-10.1644
ер	-10.1653
ના	-10.1662
▁amin	-10.1662
▁í	-10.1664
In	-10.1673
sz	-10.1681
ల	-10.1683
ua	-10.1687
▁Island	-10.1691
▁sta	-10.1692
信	-10.1692
▁Black	-10.1695
П	-10.1698
bra	-10.1701
▁dé	-10.1703
▁Oxford	-10.1708
ία	-10.1711
ты	-10.1711
▁metro	-10.1716
▁Ki	-10.1723
pan	-10.1725
ish	-10.1729
▁His	-10.1732
▁Не	-10.1738
▁Hill	-10.1743
▁nombre	-10.1758
先	-10.1759
▁elle	-10.176
▁Mit	-10.1775
▁October	-10.1775
▁1,	-10.1778
▁Pi	-10.1779
▁está	-10.1788
sche	-10.1789
▁Mac	-10.1792
▁Kar	-10.1793
▁становника	-10.1802
ité	-10.1804
▁Cu	-10.181
對	-10.1814
▁King	-10.1816
ford	-10.1822
ə	-10.1822
▁bar	-10.1827
lig	-10.1831
av	-10.1832
▁pel	-10.1833
aire	-10.1836
Б	-10.1837
▁پر	-10.1839
ação	-10.184
▁在	-10.1841
rik	-10.1847
ła	-10.1853
▁Karl	-10.1855
▁national	-10.1868
▁Louis	-10.187
ora	-10.1877
並	-10.1878
目	-10.1888
▁Elle	-10.1889
▁2,	-10.1891
▁them	-10.1891
▁anni	-10.1893
▁Records	-10.1896
▁34	-10.19
▁هو	-10.1904
ди	-10.1906
▁set	-10.1906
▁juni	-10.191
▁vers	-10.1915
cer	-10.1915
▁「	-10.1918
▁cette	-10.192
▁anti	-10.192
ப்	-10.1928
ف	-10.1939
▁1950	-10.1945
▁Р	-10.1945
来	-10.1946
▁Hall	-10.1948
動	-10.195
起	-10.196
或	-10.1966
▁populasyon	-10.1966
به	-10.1971
将	-10.1974
ಯ	-10.1974
▁ale	-10.1978
का	-10.1979
▁não	-10.1981
▁same	-10.1981
లో	-10.1984
ő	-10.1989
▁Ch	-10.1989
▁seiner	-10.199
nis	-10.1995
という	-10.1995
mas	-10.1996
▁sein	-10.1996
▁sig	-10.1998
▁Ze	-10.2002
▁bio	-10.2004
▁//	-10.2004
▁أو	-10.2012
▁commune	-10.2013
los	-10.2014
tak	-10.2017
▁1971	-10.2019
jen	-10.2021
約	-10.2027
ore	-10.2028
▁partir	-10.203
▁until	-10.203
ز	-10.2033
▁end	-10.2033
ян	-10.2033
▁kor	-10.2033
▁radie	-10.2038
▁sakop	-10.2042
曲	-10.2052
Re	-10.2069
▁עם	-10.2075
▁December	-10.2076
yn	-10.2078
▁Ra	-10.2081
波	-10.2081
ор	-10.2086
ன்	-10.209
心	-10.2097
аў	-10.2108
▁1976	-10.2113
jan	-10.2114
▁70	-10.2119
▁College	-10.2121
得	-10.2124
▁Ф	-10.2129
ர்	-10.2129
iert	-10.2134
▁pot	-10.2137
ร	-10.2141
▁sp	-10.2142
▁б	-10.2142
▁tả	-10.2143
ша	-10.2143
ے	-10.2145
▁asteroid	-10.2146
▁п	-10.2147
▁onder	-10.2151
лар	-10.2151
▁four	-10.2159
▁One	-10.2163
ды	-10.2167
정	-10.2172
vet	-10.2173
ר	-10.2187
ου	-10.2188
民	-10.219
ator	-10.2191
▁1969	-10.2197
")	-10.2199
Т	-10.2201
burg	-10.2203
▁же	-10.2204
▁Award	-10.221
使用	-10.2215
▁pu	-10.2217
ย	-10.2218
ksi	-10.2224
▁Son	-10.2227
mal	-10.2232
har	-10.2234
ן	-10.2234
си	-10.2242
во	-10.2247
라	-10.2249
兵	-10.2249
tek	-10.2252
ро	-10.2252
45	-10.2256
此	-10.2257
че	-10.2259
మీ	-10.2262
cie	-10.2263
▁Dunay	-10.2267
ค	-10.2277
▁nad	-10.2278
世	-10.2279
▁під	-10.2281
常	-10.2285
知	-10.2287
▁1940	-10.2289
▁Union	-10.229
▁Canada	-10.2295
Д	-10.23
sia	-10.2302
▁1944	-10.2308
▁juga	-10.2309
rin	-10.2309
▁system	-10.2314
ys	-10.2321
ement	-10.2326
江	-10.2327
▁그	-10.2329
ці	-10.2331
▁1977	-10.2338
ги	-10.2341
▁House	-10.2345
▁36	-10.2346
▁അ	-10.2349
qui	-10.2358
માં	-10.2363
υ	-10.2363
tum	-10.2366
▁Frank	-10.2367
)、	-10.2368
▁ن	-10.2374
ले	-10.2375
▁וה	-10.2375
ού	-10.2379
った	-10.2385
수	-10.2389
武	-10.2397
▁desde	-10.2399
キ	-10.2402
▁uno	-10.2404
▁uz	-10.2404
布	-10.2411
▁Ur	-10.2414
áu	-10.2416
stra	-10.2416
ija	-10.242
▁Ο	-10.2432
▁είναι	-10.2439
ला	-10.2439
osa	-10.2444
▁sowie	-10.2444
stein	-10.2447
ノ	-10.245
▁FC	-10.2452
▁Juan	-10.2452
iva	-10.2453
▁Joseph	-10.2456
▁pan	-10.2463
▁že	-10.2471
▁제	-10.2474
▁Band	-10.248
än	-10.2484
▁By	-10.2487
▁Air	-10.249
ят	-10.2495
mel	-10.2508
или	-10.2517
lat	-10.2521
▁ubos	-10.2527
ag	-10.2528
▁byl	-10.2529
pu	-10.2534
rit	-10.2537
по	-10.254
▁roz	-10.2545
▁sul	-10.2547
Le	-10.2551
00	-10.2553
ette	-10.2559
▁1967	-10.2559
ता	-10.256
▁Trakt	-10.2561
う	-10.2561
▁aber	-10.2566
▁Vor	-10.2575
▁village	-10.2576
イ	-10.2577
zioni	-10.2577
▁לא	-10.2578
oc	-10.2579
주	-10.2586
ار	-10.2588
ott	-10.2594
ने	-10.2596
▁seine	-10.2598
▁Christian	-10.2599
vol	-10.2599
mat	-10.2602
ја	-10.261
ना	-10.2619
▁Ju	-10.262
kabanay	-10.2622
bor	-10.2624
ive	-10.2627
ario	-10.263
وا	-10.2631
ության	-10.2632
▁vào	-10.2643
▁Tom	-10.2644
▁Central	-10.2646
▁("	-10.265
▁gepubliceerd	-10.2652
부	-10.2653
ге	-10.2658
▁geldig	-10.2659
▁music	-10.2662
▁Royal	-10.2663
▁*	-10.2665
首	-10.2665
му	-10.2666
▁top	-10.2671
tos	-10.2671
▁seus	-10.2672
cal	-10.2672
ble	-10.2673
▁We	-10.2673
▁major	-10.2674
▁Super	-10.2677
▁use	-10.2684
сы	-10.2685
ん	-10.2687
点	-10.269
尼	-10.2691
▁ay	-10.2691
▁Gi	-10.2691
▁principal	-10.2695
▁Daniel	-10.2706
意	-10.2709
상	-10.271
ст	-10.2713
军	-10.2714
▁played	-10.2716
▁2009.	-10.2717
aux	-10.2725
▁Lac	-10.2726
▁Carl	-10.2728
int	-10.2734
rus	-10.2736
▁Rock	-10.2736
▁Л	-10.2747
▁America	-10.2749
史	-10.275
量	-10.2751
▁3,	-10.2751
ена	-10.2759
bal	-10.2773
ство	-10.2773
▁ఉంది	-10.2777
▁super	-10.2778
ras	-10.2779
oài	-10.278
▁Dam	-10.2781
zer	-10.2782
▁واقع	-10.2784
▁Pan	-10.2785
▁released	-10.2786
▁home	-10.2788
▁Cha	-10.2789
ија	-10.2792
▁program	-10.2793
系	-10.2794
各	-10.2801
▁90	-10.2806
nim	-10.2807
▁Ho	-10.2807
員	-10.2808
▁sistema	-10.281
▁Gar	-10.281
etenschappelijke	-10.2814
花	-10.2823
并	-10.2828
▁1962	-10.283
▁kar	-10.2837
▁Ve	-10.2854
▁tal	-10.2857
mos	-10.2867
ল	-10.2871
▁గ్రామం	-10.2871
성	-10.2874
▁også	-10.2878
色	-10.2885
▁social	-10.2886
chen	-10.2898
би	-10.2902
▁station	-10.2902
ท	-10.2909
▁pi	-10.2913
▁seg	-10.2916
▁Ad	-10.2916
ió	-10.2917
▁దూరంలో	-10.2923
▁también	-10.2926
kor	-10.2929
▁pp	-10.2929
▁tháng	-10.2936
dra	-10.2936
達	-10.2938
され	-10.2941
rs	-10.2945
▁Tri	-10.2948
▁Aus	-10.295
レ	-10.295
35	-10.2954
rum	-10.2956
sky	-10.2966
dom	-10.2968
▁Roman	-10.2968
И	-10.298
▁1939	-10.2983
az	-10.2985
保	-10.2988
lé	-10.299
▁Ro	-10.2996
▁kas	-10.2998
個	-10.3002
▁τα	-10.3006
wan	-10.3009
▁popular	-10.3009
my	-10.3009
▁Η	-10.3015
▁worden	-10.3015
장	-10.3019
ында	-10.302
▁Yuta	-10.3028
▁fut	-10.3031
▁There	-10.3033
ét	-10.3036
就	-10.3036
世界	-10.3039
▁Jahre	-10.3039
改	-10.3041
▁ف	-10.3065
원	-10.307
ich	-10.3071
▁Um	-10.3073
▁É	-10.3075
▁East	-10.3076
オ	-10.3079
▁ç	-10.308
▁ci	-10.3083
▁1941	-10.3084
▁khoa	-10.3084
▁min	-10.3084
風	-10.3087
▁any	-10.3087
▁từ	-10.3094
39	-10.3098
巴	-10.3107
▁1964	-10.311
▁அ	-10.311
▁radio	-10.3115
▁chi	-10.3115
白	-10.3116
iga	-10.3124
▁Agosto	-10.3125
▁عن	-10.3126
▁области	-10.3126
▁cada	-10.313
▁region	-10.3133
古	-10.3136
प	-10.3141
太	-10.3143
▁history	-10.3146
aj	-10.3146
▁Suba	-10.3153
▁England	-10.3154
▁degli	-10.3154
tz	-10.3155
▁1920	-10.3156
cher	-10.3156
▁над	-10.316
▁dit	-10.3162
學	-10.3162
вер	-10.3163
▁số	-10.3164
▁naar	-10.3166
▁komon	-10.3169
▁ali	-10.317
ín	-10.3171
▁му	-10.3172
▁niya	-10.3182
▁talagsa	-10.3182
▁called	-10.3182
itandi	-10.3186
▁przy	-10.3189
▁1965	-10.319
卡	-10.3192
▁ہے۔	-10.3192
五	-10.3195
▁për	-10.3195
▁raz	-10.3197
leri	-10.3202
真	-10.3203
▁tan	-10.3206
▁roce	-10.3206
▁hatte	-10.3207
反	-10.3209
전	-10.321
nas	-10.3211
▁სა	-10.3211
iu	-10.3213
ская	-10.3214
▁При	-10.322
fo	-10.3221
tet	-10.3222
henera	-10.3226
gilay	-10.323
ż	-10.3233
▁была	-10.324
sse	-10.3241
版	-10.3243
มี	-10.325
vor	-10.325
▁sau	-10.3255
▁также	-10.3256
ér	-10.3261
isme	-10.3262
ു	-10.3263
nalista	-10.3265
使	-10.3266
▁bagian	-10.3272
ное	-10.3275
ş	-10.3284
ges	-10.3288
▁thành	-10.3288
way	-10.3299
院	-10.33
mm	-10.3305
tte	-10.3305
▁version	-10.3307
▁Sur	-10.3308
▁Best	-10.331
▁Espesy	-10.3311
▁Bay	-10.3318
해	-10.3321
▁pol	-10.3321
▁wala	-10.3323
打	-10.3325
य्	-10.3325
ском	-10.3333
チ	-10.3339
အ	-10.334
▁since	-10.3342
直	-10.3344
▁До	-10.3349
最	-10.3351
▁19.	-10.3355
▁February	-10.3356
▁hun	-10.3362
ες	-10.3365
▁так	-10.3375
ll	-10.338
▁Mont	-10.339
▁premier	-10.34
东	-10.3401
ме	-10.3402
▁5.	-10.3403
▁Hu	-10.3407
ната	-10.3408
話	-10.341
“,	-10.341
ב	-10.3415
▁α	-10.3418
▁back	-10.3418
▁التي	-10.3422
される	-10.3423
▁Zu	-10.3426
nar	-10.3427
idad	-10.343
zel	-10.3435
す	-10.3436
ман	-10.3438
▁ru	-10.344
ità	-10.3441
▁vir	-10.3447
ff	-10.3448
エ	-10.3455
▁Madrid	-10.3456
▁Mor	-10.3462
azione	-10.3462
▁Indonesia	-10.3463
[	-10.3463
ウ	-10.3464
▁الت	-10.3465
▁1966	-10.3466
▁tr	-10.3468
▁2008.	-10.3468
ൻ	-10.3469
▁Zeit	-10.3473
▁33	-10.3475
ait	-10.3476
100	-10.3476
隊	-10.3482
▁Sin	-10.3482
▁seva	-10.3482
て	-10.3482
▁provinsen	-10.3484
▁ಮತ್ತು	-10.3486
isi	-10.3487
英	-10.3489
born	-10.3491
▁І	-10.3492
ға	-10.3492
見	-10.3495
交	-10.3496
lor	-10.3498
ese	-10.3499
▁city	-10.3501
ces	-10.3502
▁bäldot	-10.3504
32	-10.3505
▁California	-10.3515
gel	-10.3519
tta	-10.352
因	-10.352
▁zo	-10.3521
mon	-10.3528
▁हैं	-10.3532
▁(2	-10.3535
▁س	-10.3538
▁או	-10.354
ит	-10.3546
▁zeuden	-10.3551
ori	-10.3553
▁Fe	-10.3553
▁році	-10.3559
▁guerra	-10.3559
▁Festival	-10.3561
ech	-10.3564
▁Smith	-10.3567
▁Henry	-10.3568
vers	-10.3569
▁tras	-10.3576
郡	-10.3576
iden	-10.3577
能	-10.3578
ono	-10.3579
▁Ш	-10.359
је	-10.3591
ris	-10.3595
阿	-10.3599
▁present	-10.36
▁있다	-10.36
電	-10.3601
▁several	-10.3602
▁150	-10.3604
▁π	-10.3607
vu	-10.3608
▁Roma	-10.3619
▁Pagka	-10.3619
də	-10.3623
▁1963	-10.3627
▁Th	-10.363
లు	-10.3631
▁Hans	-10.3633
מ	-10.3637
▁pelo	-10.3637
“.	-10.3638
▁1958	-10.3638
▁råder	-10.3641
ungen	-10.3646
ný	-10.3649
erne	-10.365
▁early	-10.3651
дар	-10.3655
▁nei	-10.3657
▁group	-10.3658
▁Australia	-10.366
sku	-10.366
യ	-10.3663
ха	-10.3666
当	-10.367
現	-10.3675
▁Auf	-10.3678
▁control	-10.368
ని	-10.3684
വ	-10.3686
▁And	-10.3687
▁Ban	-10.3689
ら	-10.3694
▁karon	-10.3698
▁ж	-10.3698
▁China	-10.3699
▁Center	-10.3701
▁1930	-10.3702
▁siak	-10.3702
號	-10.3703
ring	-10.3703
ey	-10.3714
▁ג	-10.3715
▁game	-10.3722
▁roman	-10.3722
▁Kin	-10.3727
來	-10.3727
dia	-10.373
ade	-10.3743
▁now	-10.3744
基	-10.3746
▁第	-10.3747
ise	-10.3747
ства	-10.3748
dakong	-10.3749
ની	-10.3754
ийн	-10.3757
▁पर	-10.3757
▁τη	-10.3757
ン	-10.3761
het	-10.3761
▁לה	-10.3765
▁Bor	-10.3767
▁Japan	-10.3768
▁Кхуза	-10.3776
아	-10.3777
將	-10.3778
inen	-10.3779
▁дар	-10.3796
aceae	-10.3798
解	-10.38
▁Rio	-10.3803
▁show	-10.3804
rá	-10.3806
ர	-10.3806
ից	-10.3809
▁gihu	-10.3812
bre	-10.3813
ային	-10.3823
oj	-10.3829
▁tiên	-10.3834
▁1956	-10.3836
▁Des	-10.3837
У	-10.3842
ые	-10.3843
▁было	-10.3845
வ	-10.3847
၊	-10.3851
ى	-10.3855
field	-10.3857
sal	-10.3862
eri	-10.3864
jar	-10.3865
▁6.	-10.3875
ons	-10.3876
▁1948	-10.3877
TV	-10.3878
▁mort	-10.3879
▁38	-10.388
bit	-10.3882
▁بال	-10.3883
ос	-10.3884
▁شد	-10.3884
▁Ed	-10.3889
間	-10.389
▁dy	-10.389
▁wo	-10.3893
ช	-10.3894
pro	-10.3895
▁një	-10.3895
▁kam	-10.3896
mit	-10.3898
▁بود	-10.3898
▁prze	-10.3909
▁بعد	-10.391
▁regia	-10.391
▁2007.	-10.3919
要	-10.3921
end	-10.3929
pt	-10.3929
ту	-10.3931
oli	-10.3931
ป	-10.3934
▁Company	-10.394
▁bien	-10.3941
修	-10.3947
▁және	-10.3947
ган	-10.3959
その	-10.3965
zia	-10.3968
via	-10.3968
▁izd	-10.3969
▁ಅ	-10.397
르	-10.397
▁video	-10.3971
ých	-10.3972
ela	-10.3974
年に	-10.3978
▁37	-10.398
О	-10.3981
▁1961	-10.3981
器	-10.3983
rie	-10.3984
▁Brasil	-10.3984
▁water	-10.3987
清	-10.3989
▁Italian	-10.399
▁former	-10.3991
ист	-10.3995
▁ان	-10.3998
▁Hi	-10.3999
▁کو	-10.3999
▁ben	-10.4006
트	-10.4008
▁į	-10.4008
ое	-10.4009
న	-10.4011
▁tempo	-10.4012
サ	-10.4013
▁1942	-10.4015
▁што	-10.4018
身	-10.4018
ک	-10.4022
서	-10.4023
▁1943	-10.4026
ī	-10.4028
form	-10.4029
など	-10.4029
▁CD	-10.4033
▁cal	-10.4034
治	-10.4035
▁În	-10.4041
つ	-10.4041
кі	-10.4046
▁bal	-10.4048
▁nog	-10.4051
kov	-10.4051
▁modern	-10.4054
▁pentru	-10.4056
校	-10.4061
▁Top	-10.4063
▁Dan	-10.4064
ਨ	-10.4065
eta	-10.4066
福	-10.4066
ön	-10.407
mis	-10.4071
나	-10.4072
nica	-10.4072
▁Kor	-10.4075
▁ਦੇ	-10.4079
▁High	-10.4085
▁ans	-10.4095
ques	-10.4095
▁patag	-10.4097
ネ	-10.4099
동	-10.4099
mor	-10.4108
ph	-10.4119
>	-10.4122
ә	-10.4122
క	-10.4122
▁Real	-10.4122
▁opera	-10.4123
tti	-10.4127
ന	-10.4129
▁main	-10.4131
ins	-10.4132
suba	-10.4134
▁English	-10.4136
▁1959	-10.414
mus	-10.4141
▁Com	-10.4145
▁They	-10.4146
mento	-10.4149
iste	-10.4153
▁wordt	-10.4158
43	-10.4158
ase	-10.4164
드	-10.4165
nan	-10.4167
60	-10.4168
lı	-10.417
▁दु	-10.417
amento	-10.417
ൽ	-10.4175
▁leur	-10.4178
▁año	-10.4182
ими	-10.4192
ong	-10.4193
▁found	-10.4193
ве	-10.4194
san	-10.4195
▁namngivn	-10.42
▁Το	-10.4203
sson	-10.4206
▁không	-10.4207
дан	-10.4208
▁Sol	-10.4208
▁kilometer	-10.4213
ви	-10.4215
政府	-10.4218
室	-10.422
空	-10.4222
க்க	-10.4226
ան	-10.4228
バ	-10.4233
ű	-10.4235
▁parti	-10.4235
▁capital	-10.4235
38	-10.4236
ക	-10.4242
▁dopo	-10.4242
স	-10.4243
tin	-10.425
▁december	-10.4251
ğ	-10.4251
kal	-10.4254
▁même	-10.4258
bus	-10.4259
▁dont	-10.426
ė	-10.4271
▁си	-10.4272
▁Encyclopedia	-10.4274
▁коды	-10.4277
ans	-10.4279
▁Nam	-10.4282
ές	-10.4285
▁Street	-10.4285
ea	-10.4287
90	-10.4287
▁hadto	-10.4291
初	-10.4295
▁یا	-10.4297
▁olan	-10.4299
▁налази	-10.4301
▁närheten	-10.4306
klimat	-10.4314
gon	-10.4321
▁vida	-10.4321
▁casa	-10.4323
41	-10.4323
▁punto	-10.4324
▁سے	-10.4324
受	-10.4329
▁Francisco	-10.4332
cho	-10.4333
ミ	-10.4335
▁naj	-10.4338
bil	-10.4338
▁niet	-10.4344
use	-10.4347
▁Sal	-10.4348
ог	-10.4348
▁District	-10.435
▁Во	-10.4351
ções	-10.4351
ま	-10.4352
din	-10.4358
▁Europe	-10.4359
▁دی	-10.4364
▁Gran	-10.4366
▁были	-10.4367
ج	-10.4373
▁donde	-10.4373
さ	-10.4373
▁primera	-10.4374
▁Sir	-10.4376
data	-10.4376
▁était	-10.4376
▁tem	-10.4382
▁Information	-10.4383
pre	-10.4383
▁song	-10.4395
▁Bal	-10.4396
cz	-10.4398
▁تا	-10.4402
▁ikke	-10.4404
uta	-10.4405
▁Group	-10.4406
anti	-10.4408
▁best	-10.4408
log	-10.4408
ente	-10.4409
▁wat	-10.4412
▁zwischen	-10.4412
▁À	-10.4416
机	-10.4419
接	-10.4421
ив	-10.4424
nych	-10.4425
▁без	-10.4426
ps	-10.4428
▁τους	-10.4429
▁april	-10.4433
▁nun	-10.4435
▁opp	-10.4437
film	-10.4443
井	-10.4451
ր	-10.4455
▁מה	-10.4457
周	-10.4462
ob	-10.4463
ң	-10.4464
▁central	-10.4465
ador	-10.4466
▁bol	-10.4471
37	-10.4471
ಗಳ	-10.4481
მა	-10.4481
▁Α	-10.4486
ու	-10.4488
▁november	-10.4488
▁held	-10.4489
吉	-10.4489
▁large	-10.449
リー	-10.4491
▁11.	-10.4493
內	-10.45
Р	-10.4502
▁время	-10.4507
▁ro	-10.4509
▁Bau	-10.4511
gas	-10.4521
▁48	-10.4529
▁આ	-10.4529
▁Italia	-10.453
ర	-10.4532
▁1954	-10.4535
助	-10.4535
▁Tur	-10.4538
ல்	-10.4538
▁1946	-10.4539
ین	-10.4539
▁line	-10.4543
▁causa	-10.4544
▁List	-10.4546
▁eines	-10.4546
▁Sant	-10.4548
▁برای	-10.4551
県	-10.4553
sin	-10.4555
▁lokal	-10.4562
フ	-10.4562
א	-10.4562
▁(2014).	-10.4563
olo	-10.4569
endo	-10.457
ło	-10.457
▁64	-10.4575
oni	-10.4576
▁following	-10.4578
派	-10.4579
▁high	-10.458
iana	-10.4581
adas	-10.4581
▁Runt	-10.4582
▁1918	-10.4582
하는	-10.4583
▁Tra	-10.4585
kt	-10.4586
▁augusti	-10.4587
▁1957	-10.4587
dur	-10.4591
▁2017.	-10.4593
▁Ti	-10.4593
▁member	-10.4594
▁havia	-10.4595
▁ai	-10.46
役	-10.46
▁XX	-10.4608
்	-10.4612
▁real	-10.4614
wo	-10.4618
rea	-10.4623
戰	-10.4625
cus	-10.4625
ジ	-10.4626
ним	-10.4626
▁German	-10.4627
ज	-10.4629
列	-10.463
ര	-10.463
eren	-10.4632
▁began	-10.4638
▁art	-10.4644
יה	-10.4644
tica	-10.4647
▁ਹੈ	-10.4654
▁model	-10.4656
ש	-10.4658
▁р	-10.4665
ско	-10.4671
▁bil	-10.4672
師	-10.4673
ding	-10.4674
08	-10.4678
▁1919	-10.4681
aba	-10.4684
▁ville	-10.4687
▁Hän	-10.4689
ай	-10.4692
▁trans	-10.4699
▁został	-10.4701
వ	-10.4701
يا	-10.4702
▁Bur	-10.4704
▁кон	-10.4705
▁these	-10.471
▁Long	-10.471
če	-10.4711
yl	-10.4711
▁Ru	-10.4714
stad	-10.4718
▁drei	-10.472
ef	-10.4725
▁Als	-10.4729
▁전	-10.4732
▁دو	-10.4738
▁(17	-10.4742
கள்	-10.4743
ских	-10.4749
氏	-10.4749
ಲ	-10.475
화	-10.4754
nog	-10.4755
set	-10.4763
▁debut	-10.4764
▁Bei	-10.4765
▁Che	-10.4769
▁Open	-10.4772
歌	-10.4772
tter	-10.4776
ness	-10.4777
▁hu	-10.478
男	-10.4783
▁Association	-10.4787
土	-10.4793
▁2004.	-10.4795
率	-10.4795
чу	-10.4795
▁maj	-10.4796
▁company	-10.4797
▁pos	-10.48
▁Sch	-10.48
取	-10.4802
out	-10.4807
ಮ	-10.4807
▁enligt	-10.4811
36	-10.4811
xi	-10.4813
連	-10.4815
▁וב	-10.4816
马	-10.4818
ων	-10.4819
品	-10.4823
$	-10.4824
ën	-10.4826
▁atau	-10.4827
nja	-10.4832
▁kg	-10.4832
▁efter	-10.4834
されている	-10.4835
▁ac	-10.484
ните	-10.4845
火	-10.485
▁vật	-10.4851
▁play	-10.4852
ком	-10.4855
▁18.	-10.4856
進	-10.4859
万	-10.486
▁また	-10.487
▁Kunze	-10.487
战	-10.4881
▁Far	-10.4885
tic	-10.4887
▁д	-10.4887
Л	-10.4887
テ	-10.4891
▁motor	-10.4894
ट	-10.4899
县	-10.4901
мо	-10.4901
▁dar	-10.4902
▁obra	-10.4904
▁stanovnika	-10.4907
▁högsta	-10.4907
ament	-10.4908
半	-10.4909
▁upp	-10.4916
▁oktober	-10.4918
▁после	-10.4921
▁gegen	-10.4925
▁đến	-10.4926
gy	-10.4926
-12	-10.4928
▁Fu	-10.4929
ow	-10.4932
▁thuộc	-10.4934
昭和	-10.4935
▁like	-10.4937
▁Antonio	-10.4937
▁Lee	-10.4938
▁rock	-10.4938
Al	-10.4944
гу	-10.4944
▁1952	-10.4946
线	-10.4949
▁hier	-10.4951
▁Gu	-10.4953
▁1938	-10.4954
ше	-10.4954
ría	-10.4955
44	-10.4956
▁Σ	-10.4956
港	-10.4957
メ	-10.4961
▁auto	-10.4965
▁Ri	-10.4966
▁Hy	-10.4966
نا	-10.4967
▁februari	-10.4967
-19	-10.4967
え	-10.4969
▁match	-10.4969
八	-10.4973
▁الأ	-10.4975
▁Del	-10.4975
▁site	-10.498
ega	-10.498
ニ	-10.498
hr	-10.4984
ové	-10.4985
▁Я	-10.4987
stan	-10.4987
▁să	-10.4992
get	-10.5001
yan	-10.5003
▁mens	-10.5005
▁Pu	-10.5005
ик	-10.5006
▁시	-10.5006
着	-10.5008
46	-10.5014
].	-10.5015
▁mer	-10.5018
▁42	-10.5018
ను	-10.5019
▁Wever	-10.502
▁pred	-10.502
▁39	-10.5023
▁Š	-10.5025
▁thực	-10.5033
▁Bre	-10.5033
▁2010,	-10.5035
谷	-10.5036
李	-10.5037
▁novembre	-10.5046
▁Culham	-10.5046
▁1949	-10.5047
tó	-10.5047
port	-10.5051
▁2006.	-10.5052
頭	-10.5054
▁nhữn	-10.5057
▁лет	-10.5057
ді	-10.5062
▁Census	-10.5066
▁роз	-10.5067
па	-10.507
ре	-10.5071
▁ger	-10.5071
dis	-10.5072
▁क	-10.5073
br	-10.5078
▁Ali	-10.5083
bro	-10.5084
▁Division	-10.5084
ー	-10.5086
lis	-10.5087
ס	-10.5088
▁या	-10.509
ος	-10.5095
▁natural	-10.5095
著	-10.5097
▁ud	-10.5098
縣	-10.5099
▁Mary	-10.5107
द	-10.5107
お	-10.5108
▁White	-10.511
ē	-10.5111
▁did	-10.5114
ವ	-10.5119
▁também	-10.5121
unay	-10.5123
ské	-10.5124
▁service	-10.5129
▁Italy	-10.5132
字	-10.5135
級	-10.5137
▁red	-10.5141
▁vuonna	-10.5144
▁1934	-10.5145
▁Tr	-10.5145
-11	-10.5145
▁maar	-10.5158
ರು	-10.5162
▁tại	-10.5164
nın	-10.5166
▁7.	-10.5173
▁Sun	-10.5176
▁located	-10.5179
▁où	-10.5183
ина	-10.5185
▁record	-10.5185
hy	-10.5186
伊	-10.5186
ум	-10.5189
▁1955	-10.5193
æ	-10.5193
▁point	-10.5195
▁khi	-10.5201
skog	-10.5204
中国	-10.5211
▁unha	-10.5218
ás	-10.5218
▁(15	-10.522
oval	-10.5223
98	-10.5224
▁1936	-10.5225
ित	-10.5225
▁government	-10.5226
実	-10.523
志	-10.5232
▁vier	-10.5234
55	-10.5234
lari	-10.5235
▁Mel	-10.5235
百	-10.5238
ová	-10.5241
ён	-10.5242
▁1929	-10.5243
▁아	-10.5243
▁го	-10.5246
愛	-10.5246
▁aussi	-10.5246
死	-10.5253
▁each	-10.5257
▁district	-10.5259
ਲ	-10.5261
ய	-10.5261
▁hän	-10.5267
▁Marine	-10.527
ա	-10.5273
▁mon	-10.5273
▁Modern	-10.5287
宮	-10.5287
제	-10.5289
共	-10.5291
bat	-10.5292
lag	-10.5296
구	-10.5304
▁Med	-10.5305
▁Este	-10.5307
owa	-10.5311
▁www	-10.5313
▁ایران	-10.5316
αν	-10.5317
rt	-10.532
▁Cal	-10.532
ված	-10.5323
▁Big	-10.5324
▁те	-10.5324
▁habagatang	-10.5326
▁lugar	-10.533
▁quando	-10.533
iko	-10.5335
ম	-10.5336
▁Ex	-10.5336
▁א	-10.5341
▁Према	-10.5343
▁Radio	-10.5346
▁period	-10.5348
por	-10.5348
▁1932	-10.535
▁binon	-10.5351
▁Tre	-10.5357
က	-10.5358
▁1947	-10.5359
▁cre	-10.536
är	-10.5361
▁director	-10.5362
▁Sen	-10.5364
▁Ар	-10.5376
種	-10.5377
ê	-10.538
▁kun	-10.5381
اء	-10.5381
▁#	-10.5382
ingen	-10.5383
▁ва	-10.5392
Ф	-10.5394
vas	-10.5404
лы	-10.5405
▁Var	-10.5406
ör	-10.5406
▁جو	-10.5408
▁Dar	-10.5408
led	-10.5409
ੇ	-10.5411
▁ngày	-10.5415
▁banda	-10.5419
如	-10.5423
▁punkten	-10.5424
ši	-10.5428
하고	-10.5431
モ	-10.5432
▁هي	-10.5432
دن	-10.5433
季	-10.5441
cio	-10.5444
pr	-10.5448
▁1953	-10.545
▁kabungtoran	-10.5452
再	-10.5454
ost	-10.5456
▁VI	-10.5456
▁media	-10.5457
▁1924	-10.5458
ves	-10.5458
‘	-10.5459
▁Ten	-10.5462
imo	-10.5463
all	-10.5467
ça	-10.5473
▁Mon	-10.5475
▁Sp	-10.5475
▁том	-10.5476
ต	-10.5476
owych	-10.5478
▁support	-10.548
▁$	-10.5481
▁ת	-10.5481
▁mag	-10.5481
06	-10.5486
▁2017-02-28	-10.5486
ല	-10.5487
發	-10.5488
▁adolah	-10.549
って	-10.549
uar	-10.5493
over	-10.55
未	-10.55
či	-10.5509
▁دا	-10.551
adi	-10.551
▁1933	-10.5518
▁God	-10.5519
bin	-10.5523
▁год	-10.5524
▁พ	-10.5528
▁Journal	-10.553
ния	-10.553
రు	-10.553
▁Hal	-10.5531
pp	-10.5534
▁Insecta	-10.5536
▁nahimutang	-10.5536
off	-10.5537
▁три	-10.5538
▁(4	-10.5541
enia	-10.5542
寺	-10.5544
ツ	-10.5546
▁dieser	-10.5547
研究	-10.5547
▁3:	-10.5548
och	-10.5549
ania	-10.5553
dre	-10.5554
bach	-10.5556
34	-10.5559
tive	-10.5561
▁Berg	-10.5562
▁Edward	-10.5562
▁Carlos	-10.5562
▁سو	-10.5563
▁lifayel	-10.5564
ما	-10.5568
هم	-10.5569
ि	-10.5569
했다	-10.557
▁telah	-10.557
▁etter	-10.5571
վել	-10.5571
eau	-10.5572
▁sentro	-10.5572
▁seit	-10.5578
եր	-10.5579
▁Sub	-10.5579
▁bet	-10.5581
▁Jack	-10.5582
ју	-10.5584
曾	-10.5585
ð	-10.5586
Ar	-10.5586
▁Ю	-10.5588
ense	-10.5591
ـ	-10.5591
▁tidak	-10.5592
ನ್	-10.5594
▁partie	-10.5595
це	-10.5595
91	-10.5596
▁onde	-10.5596
bert	-10.5596
▁בשנת	-10.5597
tt	-10.5598
▁tour	-10.5606
▁sz	-10.5608
▁sen	-10.5612
▁Pen	-10.5612
▁país	-10.5612
▁Brown	-10.5613
ther	-10.5614
க	-10.5617
▁Hij	-10.5618
▁Live	-10.5619
▁XIX	-10.562
▁ok	-10.5622
▁기	-10.5624
▁just	-10.5625
hl	-10.5628
▁Anna	-10.563
▁side	-10.5643
▁ع	-10.5643
▁43	-10.5646
ներ	-10.5648
ated	-10.5651
ondado	-10.5652
ી	-10.5654
▁list	-10.5656
▁1917	-10.5657
det	-10.5659
«	-10.5663
tri	-10.5663
μ	-10.5666
▁Min	-10.5668
▁fou	-10.567
▁également	-10.5674
▁Oktober	-10.5676
▁Ober	-10.5679
ить	-10.5679
▁población	-10.5681
▁usa	-10.5682
rio	-10.5683
▁Pierre	-10.5683
近	-10.5685
소	-10.5685
ić	-10.5686
ս	-10.5686
ста	-10.569
▁að	-10.5692
ד	-10.5692
erte	-10.5694
ду	-10.5694
▁през	-10.5694
ർ	-10.5695
▁lang	-10.5697
მ	-10.5698
ور	-10.5698
▁olarak	-10.5703
▁based	-10.5704
松	-10.5706
▁ile	-10.5709
▁mod	-10.5713
த்	-10.5713
▁mor	-10.5719
指	-10.5719
▁né	-10.5728
ರ್	-10.5729
—19	-10.5738
開	-10.5742
▁zona	-10.5742
ется	-10.5743
▁age	-10.5744
▁(2005)	-10.5744
體	-10.5745
▁(3	-10.5745
▁Eu	-10.5746
less	-10.5746
ғы	-10.5748
▁named	-10.5755
dro	-10.5756
tura	-10.5757
門	-10.5758
ото	-10.5764
▁après	-10.5766
lia	-10.5766
▁Cambridge	-10.5779
▁हो	-10.5782
01	-10.5783
▁był	-10.5792
▁production	-10.5797
▁Sar	-10.5799
パ	-10.58
▁17.	-10.58
mont	-10.58
य	-10.5804
ák	-10.5806
vik	-10.581
▁European	-10.5816
ブ	-10.5817
200	-10.5824
ande	-10.5827
▁puis	-10.5828
മ	-10.5829
чи	-10.5832
▁가	-10.5832
ales	-10.584
▁1951	-10.5842
落	-10.5842
52	-10.5843
ți	-10.5845
nika	-10.585
gin	-10.5851
又	-10.5853
▁като	-10.5853
пе	-10.5856
치	-10.5873
igen	-10.5874
wer	-10.5874
De	-10.5876
▁Jahren	-10.5876
▁Post	-10.5881
好	-10.5881
▁Point	-10.5882
സ്	-10.5884
-15	-10.5885
▁Day	-10.5886
vit	-10.5887
▁Tar	-10.5889
ár	-10.5895
pat	-10.5896
ў	-10.5897
▁12.	-10.5898
▁ainsi	-10.59
ила	-10.5902
же	-10.5903
▁contre	-10.5903
▁però	-10.5905
▁2005.	-10.5906
▁44	-10.5907
船	-10.5908
▁depuis	-10.5908
ός	-10.5916
▁•	-10.5919
tä	-10.5921
hat	-10.5922
▁Neu	-10.5923
54	-10.5924
发	-10.5925
ец	-10.5928
▁1937	-10.5932
座	-10.5934
亞	-10.5934
引	-10.5934
▁born	-10.5934
張	-10.5936
▁life	-10.5937
uz	-10.5942
▁alors	-10.5946
ши	-10.5951
พ	-10.5955
▁کرد	-10.5957
–18	-10.5958
▁насеље	-10.596
▁Angeles	-10.596
ման	-10.5961
▁Green	-10.5961
▁anos	-10.5963
▁mil	-10.5964
商	-10.5968
編	-10.597
aan	-10.5972
etti	-10.5973
schen	-10.5974
▁15.	-10.5974
▁Albert	-10.5977
▁1927	-10.5978
ಗಳು	-10.598
▁essere	-10.598
ket	-10.5983
ક	-10.5983
车	-10.5983
▁había	-10.5984
33	-10.5985
65	-10.5987
▁put	-10.5988
段	-10.5991
个	-10.5991
▁два	-10.5993
▁час	-10.5993
▁स	-10.5994
ip	-10.5997
▁provincia	-10.5998
ী	-10.5998
▁Kal	-10.6
iri	-10.6
▁sol	-10.6001
ран	-10.6002
▁600	-10.6002
▁off	-10.601
▁Friedrich	-10.6015
ਮ	-10.6016
▁47	-10.6017
▁1925	-10.6017
▁include	-10.6017
▁Э	-10.6021
ées	-10.6023
isk	-10.6026
stand	-10.6028
cs	-10.6029
▁Alexander	-10.6031
ел	-10.6033
▁1921	-10.6033
нан	-10.6035
sto	-10.6036
森	-10.604
ül	-10.604
宗	-10.6043
▁1926	-10.6045
▁could	-10.6046
য়	-10.6046
ض	-10.6046
▁siècle	-10.6047
▁(†	-10.605
気	-10.6051
▁Inter	-10.6051
กับ	-10.6052
羅	-10.6055
rod	-10.6055
▁село	-10.6055
▁Pri	-10.6059
管	-10.6059
▁syn	-10.6059
ию	-10.6061
▁wieder	-10.6062
▁भाषा	-10.6064
▁16.	-10.6067
強	-10.6068
zeit	-10.6068
▁habitantes	-10.6071
ड	-10.6071
屋	-10.6071
グ	-10.6073
称	-10.6079
ு	-10.6083
▁Time	-10.6084
更	-10.6084
▁important	-10.6084
デ	-10.6091
nosti	-10.6091
▁గ్రామంలో	-10.6092
▁1922	-10.6094
enza	-10.6095
▁BBC	-10.6096
▁plu	-10.6097
▁famili	-10.6098
館	-10.6101
▁However	-10.6101
tie	-10.6101
mb	-10.6102
代表	-10.6103
▁français	-10.6104
即	-10.6105
▁Under	-10.6107
母	-10.6108
▁fram	-10.6109
香港	-10.6112
▁4:	-10.6113
ets	-10.6113
▁13.	-10.6113
▁Of	-10.6117
зи	-10.6117
▁היה	-10.6119
ಲ್	-10.6119
ës	-10.6121
ון	-10.6122
pin	-10.6122
▁120	-10.6124
▁Pod	-10.6126
iem	-10.6132
ür	-10.6134
▁Decock	-10.6138
iya	-10.6139
ün	-10.614
少	-10.614
ats	-10.6141
°	-10.6141
▁Abucay	-10.6141
▁Didžiuli	-10.6142
義	-10.6144
gang	-10.6144
▁took	-10.6144
wy	-10.6144
▁French	-10.6145
▁живело	-10.6147
片	-10.6147
场	-10.6147
time	-10.6148
ダ	-10.6149
已	-10.6152
开	-10.6152
▁bez	-10.6153
こ	-10.6154
▁menjadi	-10.6155
▁Ter	-10.616
can	-10.6162
▁jeho	-10.6163
â	-10.6164
▁1923	-10.6164
▁st	-10.6166
▁při	-10.6167
▁sonra	-10.6168
▁grupo	-10.6171
Е	-10.6175
▁andere	-10.6177
적	-10.6178
▁Indian	-10.6179
▁Wa	-10.6179
▁41	-10.6181
▁20.	-10.6182
টি	-10.6184
ზე	-10.6185
70	-10.619
కి	-10.6192
Or	-10.6194
hor	-10.6195
」(	-10.6196
源	-10.6198
53	-10.6201
dem	-10.6203
tori	-10.6204
qu	-10.6207
▁myös	-10.621
ную	-10.621
▁itu	-10.6212
El	-10.6222
51	-10.6223
дер	-10.6224
▁má	-10.6228
cí	-10.6234
▁Institute	-10.6243
▁1928	-10.6249
▁Ob	-10.625
ota	-10.6254
ತ	-10.626
▁ordo	-10.6261
2)	-10.6263
め	-10.6265
қ	-10.6265
▁(5	-10.627
star	-10.6271
uma	-10.6272
ӣ	-10.6273
▁São	-10.628
▁viene	-10.628
▁було	-10.6281
▁دارد	-10.6283
nos	-10.6285
ades	-10.6287
▁mentre	-10.6291
▁Bad	-10.6292
▁test	-10.6296
ology	-10.6298
ения	-10.6299
▁pado	-10.63
▁pré	-10.6303
▁대	-10.6304
80	-10.6304
▁Pol	-10.6305
▁première	-10.6305
▁ban	-10.6308
▁last	-10.6309
owej	-10.6309
▁nell	-10.6312
erna	-10.6316
ede	-10.6319
▁loro	-10.6325
ence	-10.6329
▁এবং	-10.633
▁Про	-10.633
ак	-10.633
lah	-10.6334
്	-10.6336
情	-10.6341
文化	-10.6345
支	-10.6345
▁52	-10.6347
▁Team	-10.6347
▁היא	-10.6347
▁8.	-10.6349
▁IC	-10.6349
▁mei	-10.635
今	-10.6351
ute	-10.6352
▁Hunyo	-10.6354
gue	-10.6358
angan	-10.6358
▁built	-10.6362
ген	-10.6362
▁joka	-10.6364
▁Road	-10.6365
▁역	-10.6365
ут	-10.6365
▁ju	-10.6366
▁Sud	-10.6367
▁Ger	-10.6367
▁1-	-10.6367
▁Villa	-10.637
選	-10.637
gra	-10.6371
▁Sel	-10.6374
տ	-10.6375
▁autor	-10.6376
店	-10.6379
▁kur	-10.6379
из	-10.6383
▁around	-10.6387
▁Marie	-10.6391
▁ಆ	-10.6391
יו	-10.6393
ihan	-10.6394
ების	-10.6395
ար	-10.6398
02	-10.6402
ები	-10.6402
▁Terräng	-10.6403
▁Juni	-10.6408
ო	-10.641
▁still	-10.6411
▁Unter	-10.6413
による	-10.6413
يد	-10.6414
▁Β	-10.6415
▁46	-10.6415
sie	-10.6417
▁cor	-10.6424
▁så	-10.6425
▁10.	-10.6428
▁kann	-10.6428
▁49	-10.643
放送	-10.6432
ського	-10.6437
-16	-10.6439
etta	-10.644
heim	-10.6443
▁day	-10.6443
演	-10.6445
▁Juli	-10.6462
aga	-10.6465
97	-10.6467
▁UTC	-10.6468
▁habitants	-10.647
ಸ್	-10.6473
ίας	-10.6473
▁Со	-10.6474
öl	-10.6474
▁Mil	-10.6475
มา	-10.6475
▁(16	-10.6475
▁οι	-10.6484
న్	-10.6484
ete	-10.6487
▁später	-10.6487
言	-10.649
하였다	-10.6495
第一	-10.6495
eva	-10.6497
▁х	-10.65
▁Cor	-10.6501
лу	-10.6504
und	-10.6504
により	-10.6507
▁висини	-10.651
42	-10.6511
▁1912	-10.6511
▁この	-10.6514
itat	-10.6516
▁agosto	-10.6517
▁Pebrero	-10.6517
об	-10.652
like	-10.6521
▁म	-10.6523
▁چ	-10.6524
▁kini	-10.6525
▁small	-10.6526
far	-10.6528
▁می	-10.6528
▁century	-10.653
ẹ	-10.6534
면	-10.6535
вар	-10.6536
▁See	-10.6537
▁населения	-10.6538
▁հ	-10.6542
務	-10.6545
▁Rad	-10.6548
▁14.	-10.6549
49	-10.6552
▁климат	-10.6557
ਰ	-10.6558
owy	-10.6558
▁vie	-10.6559
この	-10.6561
▁אל	-10.6563
ો	-10.6564
▁Wilhelm	-10.6567
▁qual	-10.6569
lige	-10.657
pis	-10.6574
rad	-10.6576
▁cuando	-10.6576
▁Science	-10.6578
▁frå	-10.6579
▁esis	-10.6583
▁РФ	-10.6587
ют	-10.6587
▁2009,	-10.6588
▁Pada	-10.6591
-17	-10.6594
組	-10.6597
π	-10.6597
лен	-10.66
となる	-10.66
bia	-10.6602
▁надморско	-10.6603
▁Kur	-10.6604
▁første	-10.6609
ਕ	-10.6609
▁received	-10.661
▁لا	-10.661
▁nacional	-10.6611
橋	-10.6613
lam	-10.6614
▁đó	-10.6615
마	-10.6618
▁Ма	-10.6621
▁2006,	-10.6624
可以	-10.6626
ು	-10.6626
▁grup	-10.6627
発	-10.6629
▁ಕ	-10.6632
imi	-10.6632
▁pla	-10.6635
▁75	-10.6641
pad	-10.6643
ában	-10.6643
▁55	-10.6645
lim	-10.6645
ана	-10.6645
dik	-10.6646
▁주	-10.6647
▁ήταν	-10.6647
ува	-10.6647
▁Nova	-10.6649
▁published	-10.6651
▁gan	-10.6651
▁word	-10.6652
อ	-10.6654
elt	-10.6655
▁\	-10.6657
▁Von	-10.6658
fu	-10.6662
IC	-10.6663
あ	-10.6664
ден	-10.6665
▁vil	-10.6666
▁Times	-10.6671
▁tai	-10.6671
▁הת	-10.6672
▁finale	-10.6676
ص	-10.6678
▁own	-10.6678
▁1914	-10.6681
iza	-10.6682
▁Yu	-10.6683
▁Gor	-10.6683
▁2007,	-10.6684
\	-10.6693
▁mô	-10.6701
▁ہے	-10.6702
となった	-10.6703
客	-10.6704
兩	-10.6704
▁mehr	-10.6709
▁INSEE	-10.671
▁ح	-10.6711
isten	-10.6711
▁terletak	-10.6711
▁deze	-10.6714
▁être	-10.6714
ದಲ್ಲಿ	-10.6715
nost	-10.6715
界	-10.6716
▁Kr	-10.6719
▁air	-10.672
▁Disyembre	-10.6721
▁série	-10.6721
▁유	-10.6721
king	-10.6722
}	-10.6725
▁د	-10.6727
▁ಮ	-10.6728
▁бо	-10.6729
▁sé	-10.673
▁був	-10.6733
▁within	-10.6734
▁sido	-10.6735
ře	-10.6735
▁served	-10.6738
fin	-10.6741
▁color	-10.6743
gre	-10.6744
▁são	-10.6744
▁latach	-10.6746
▁России	-10.6747
▁1931	-10.6749
數	-10.675
▁Monte	-10.675
ého	-10.675
-10	-10.6753
dio	-10.6756
▁because	-10.6756
司	-10.6757
bet	-10.6759
gal	-10.6762
非	-10.6766
▁ciudad	-10.6767
▁Championship	-10.6767
▁death	-10.6768
越	-10.677
▁1935	-10.6771
▁지	-10.6772
▁Port	-10.6773
▁насељу	-10.6775
▁thể	-10.6775
朝	-10.6778
▁left	-10.6778
57	-10.678
ής	-10.6782
*	-10.6783
ът	-10.6785
▁res	-10.6786
、「	-10.6789
▁ও	-10.679
ਸ	-10.679
61	-10.6801
▁(2003)	-10.6802
党	-10.6807
და	-10.6808
ms	-10.6809
ကို	-10.6809
▁gr	-10.6813
03	-10.6817
▁primo	-10.6819
že	-10.6819
▁دے	-10.6822
▁보	-10.683
dd	-10.683
▁ад	-10.6832
▁kingdom	-10.6836
ハ	-10.6838
well	-10.6839
▁Br	-10.6844
side	-10.6845
lon	-10.6847
ว่า	-10.685
▁2012,	-10.6851
▁my	-10.6851
ให้	-10.6852
ները	-10.6852
▁design	-10.6857
ર	-10.6858
▁bas	-10.6863
rah	-10.6864
▁(«	-10.6865
명	-10.6867
▁1910	-10.6868
▁Col	-10.6869
▁Bou	-10.6874
▁jedoch	-10.6878
▁anno	-10.6879
bau	-10.6882
encia	-10.6883
▁Chicago	-10.6887
07	-10.689
▁2008,	-10.6892
േ	-10.6894
▁Simon	-10.6897
сен	-10.6902
▁million	-10.6903
ك	-10.6903
▁if	-10.6905
56	-10.6905
lang	-10.691
nje	-10.6913
▁”	-10.6914
▁Jones	-10.6915
▁temps	-10.6915
▁Texas	-10.6921
▁ਵਿੱਚ	-10.6921
▁face	-10.6923
▁nas	-10.6924
業	-10.6925
▁bra	-10.6926
▁Barcelona	-10.6926
▁його	-10.6927
記	-10.6929
oz	-10.693
公司	-10.6931
▁along	-10.6933
▁Dal	-10.6934
▁members	-10.6937
게	-10.6941
開始	-10.6942
▁જ	-10.6944
▁Esta	-10.6947
ความ	-10.6948
▁Mad	-10.6948
▁huvudsak	-10.695
▁Max	-10.6951
▁eerste	-10.696
alis	-10.6961
esta	-10.6961
▁iki	-10.6962
▁2014,	-10.6963
▁iš	-10.6964
vá	-10.6965
த்த	-10.6968
fen	-10.6969
ली	-10.6969
tina	-10.6973
bb	-10.6974
St	-10.6976
গ	-10.6978
▁pie	-10.6978
▁kap	-10.698
▁ایک	-10.6981
▁hans	-10.6986
▁ven	-10.6987
論	-10.6987
ակ	-10.6987
▁كان	-10.6989
tele	-10.699
▁pen	-10.699
へ	-10.6992
▁Հ	-10.6993
雷	-10.6993
nus	-10.6995
▁hal	-10.6997
▁би	-10.7003
tivo	-10.7008
ボ	-10.7008
▁Mountain	-10.7008
▁material	-10.7008
cas	-10.7011
▁Oslo	-10.7011
▁9.	-10.7012
▁star	-10.7012
die	-10.7012
▁quan	-10.7012
ır	-10.7013
oso	-10.7014
▁hand	-10.7017
放	-10.7019
▁comuna	-10.702
▁led	-10.7021
▁ق	-10.7022
χ	-10.7023
orum	-10.7024
nice	-10.7024
గా	-10.7026
ologie	-10.7026
▁Awards	-10.7026
▁사	-10.7026
Х	-10.7026
▁إ	-10.7028
мер	-10.7031
री	-10.7033
▁football	-10.7035
war	-10.7036
ast	-10.7038
▁lan	-10.7043
守	-10.7046
usta	-10.7047
ial	-10.7048
hin	-10.7053
▁نام	-10.7054
58	-10.7055
mp	-10.7055
登	-10.7056
jer	-10.7056
▁pat	-10.7057
▁ces	-10.7058
中國	-10.7067
▁Cerambycidae	-10.7069
以及	-10.7069
▁גם	-10.707
ux	-10.7073
▁Bon	-10.7074
ಿ	-10.7076
eh	-10.7077
▁وی	-10.7077
▁Ра	-10.7077
75	-10.708
▁tur	-10.7082
▁lors	-10.7086
조	-10.7088
▁etc	-10.7088
▁pra	-10.7088
werk	-10.7089
▁Act	-10.7091
收	-10.7092
▁về	-10.7096
▁ס	-10.71
rak	-10.7101
▁Π	-10.7101
rono	-10.7102
wood	-10.7104
-2	-10.7106
inin	-10.7108
dig	-10.7111
▁Bol	-10.7112
▁کر	-10.7116
威	-10.7118
▁fueron	-10.7118
▁Diptera	-10.7119
ple	-10.712
▁town	-10.7123
long	-10.7123
六	-10.7126
▁Bill	-10.7128
ಸ	-10.7131
▁Plant	-10.7133
經	-10.7134
64	-10.7134
▁civil	-10.7136
lt	-10.7137
感	-10.7141
रा	-10.7142
▁Bureau	-10.7143
Н	-10.7147
▁nag	-10.715
▁marca	-10.7151
▁six	-10.7152
▁hadde	-10.7152
▁centre	-10.7154
▁From	-10.7155
▁dove	-10.7156
▁Pat	-10.7159
▁Santiago	-10.7161
owe	-10.7161
ո	-10.7165
▁để	-10.7168
▁छ	-10.717
▁Luis	-10.7171
两	-10.7171
še	-10.7172
失	-10.7175
▁وت	-10.7176
▁five	-10.7176
pel	-10.7176
ில்	-10.7179
72	-10.7179
dat	-10.7189
▁dân	-10.7195
မ	-10.7197
▁tam	-10.7199
؛	-10.7199
▁álbum	-10.7199
▁cha	-10.72
▁đ	-10.7208
ન	-10.7208
總	-10.7215
普	-10.7217
▁Са	-10.7217
lər	-10.7218
▁full	-10.7219
ビ	-10.722
▁gen	-10.7221
hen	-10.7223
ग	-10.7226
スト	-10.7227
ベ	-10.7232
kh	-10.7232
▁tubig	-10.7234
сі	-10.7236
85	-10.7237
xe	-10.7238
ই	-10.7239
▁ידי	-10.7244
mak	-10.7245
▁Et	-10.7247
堂	-10.7252
華	-10.7252
▁hvor	-10.7254
表	-10.7257
album	-10.7258
▁gol	-10.7261
▁variansen	-10.7261
ح	-10.7262
▁ре	-10.7264
▁marzo	-10.7267
진	-10.7267
మ	-10.7268
бер	-10.727
▁că	-10.7274
сти	-10.7275
老	-10.7275
국	-10.7278
ations	-10.7278
れ	-10.7279
▁north	-10.7279
▁Walter	-10.7283
▁hit	-10.7285
章	-10.7286
ierte	-10.7287
族	-10.7287
호	-10.729
ving	-10.7295
jem	-10.7297
▁First	-10.73
▁children	-10.7303
nem	-10.7304
▁família	-10.7306
ful	-10.7308
▁Routledge	-10.7309
산	-10.731
til	-10.7311
▁오	-10.7314
ु	-10.7316
▁Football	-10.7317
▁said	-10.7317
▁bila	-10.7318
า	-10.7319
ర్	-10.7323
اد	-10.7324
▁Young	-10.7326
old	-10.7327
▁йогӀу	-10.7328
ул	-10.7329
▁juo	-10.7329
千	-10.7329
pas	-10.733
案	-10.7333
け	-10.7335
하여	-10.7336
▁Kūh	-10.7336
群	-10.7338
▁công	-10.7342
像	-10.7342
▁пред	-10.7345
ன	-10.7346
▁Dom	-10.7349
shi	-10.7351
经	-10.7351
▁юкъа	-10.7352
▁hai	-10.7353
▁ersten	-10.7354
ін	-10.7358
沙	-10.736
從	-10.7362
pol	-10.7364
食	-10.7365
していた	-10.7365
ё	-10.7365
亚	-10.7366
▁ки	-10.7368
▁Bel	-10.7369
dtong	-10.7369
书	-10.7371
mark	-10.7372
提	-10.7372
ович	-10.7373
nut	-10.7374
ering	-10.7374
▁район	-10.7375
時間	-10.7377
itu	-10.7379
hal	-10.738
▁2000.	-10.7382
ω	-10.7383
air	-10.7385
vé	-10.7388
九	-10.7395
74	-10.7395
▁mayor	-10.7399
ব	-10.7405
那	-10.7407
▁centro	-10.741
▁italiano	-10.7412
▁Teil	-10.7414
haus	-10.7416
zar	-10.7418
▁Tan	-10.7419
▁،	-10.742
▁peut	-10.7424
ず	-10.7427
▁Johann	-10.743
府	-10.743
▁СССР	-10.7437
ime	-10.7438
走	-10.7439
▁Academy	-10.7439
ský	-10.7441
▁grand	-10.7442
▁dall	-10.7442
xa	-10.7444
▁cas	-10.7444
▁მ	-10.7449
▁plaats	-10.7451
ings	-10.7452
▁ش	-10.7454
stru	-10.7454
து	-10.7456
▁є	-10.7457
ガ	-10.7459
pl	-10.746
ಗ	-10.7462
▁ná	-10.7463
▁э	-10.7464
▁Night	-10.7465
▁jak	-10.7469
isti	-10.747
▁Су	-10.7472
▁trên	-10.7475
▁international	-10.7475
▁Song	-10.7477
青	-10.7477
ای	-10.7479
وں	-10.7479
▁When	-10.748
eiro	-10.7481
81	-10.7483
ње	-10.7486
લ	-10.749
约	-10.7497
▁metal	-10.75
▁vart	-10.7501
▁Album	-10.7503
▁আ	-10.7504
▁(7	-10.7505
▁இ	-10.7506
▁र	-10.7507
▁800	-10.7508
▁정	-10.7509
ности	-10.7512
▁Animalia	-10.7512
▁pr	-10.7512
▁ك	-10.7513
》(	-10.7513
তা	-10.7513
▁Ga	-10.7514
▁Social	-10.7514
▁Grande	-10.7514
退	-10.7515
▁(2002)	-10.7517
сон	-10.7517
دا	-10.7517
▁Sky	-10.752
▁Up	-10.752
ող	-10.752
▁ш	-10.7522
▁ili	-10.7522
essa	-10.7525
али	-10.7528
స్	-10.7529
ရ	-10.7532
▁president	-10.7533
umi	-10.7534
ivo	-10.7534
î	-10.7535
▁Bank	-10.7536
ав	-10.7538
▁бар	-10.7544
▁бассейны	-10.7546
▁Ste	-10.7547
enie	-10.7548
セ	-10.7551
▁anys	-10.7553
教育	-10.7555
▁نفر	-10.7557
ు	-10.7558
▁Guerra	-10.7558
bur	-10.7561
▁Ре	-10.7561
▁לאחר	-10.7563
하	-10.7564
lit	-10.7564
▁Á	-10.7565
▁Iran	-10.7566
θ	-10.7567
lja	-10.7567
▁similar	-10.7568
▁sil	-10.7569
▁Fra	-10.757
▁க	-10.757
▁During	-10.7573
▁building	-10.7573
▁аса	-10.7576
ieren	-10.7576
▁држави	-10.7579
92	-10.7582
ilo	-10.7584
▁1913	-10.7584
▁jusqu	-10.7586
-20	-10.7586
▁val	-10.7587
▁بين	-10.7592
미	-10.7599
dı	-10.7599
▁sport	-10.7599
▁transport	-10.76
▁Dia	-10.7603
▁кӀошт	-10.7606
▁kultur	-10.7608
tia	-10.7609
▁општини	-10.761
▁خود	-10.761
▁2013,	-10.761
▁web	-10.7611
▁Law	-10.7611
▁где	-10.7613
▁hy	-10.7613
日に	-10.7617
bol	-10.762
▁cual	-10.762
▁էր	-10.7623
ೇ	-10.7632
ole	-10.7633
ló	-10.7637
04	-10.7639
ур	-10.7639
ō	-10.7639
▁Church	-10.764
▁filum	-10.7642
深	-10.7644
▁Lang	-10.7645
▁Little	-10.7645
より	-10.7647
▁Januar	-10.7647
▁book	-10.7649
5;	-10.7652
ij	-10.7654
▁Kim	-10.7655
▁Diaks	-10.7661
09	-10.7665
tzen	-10.7669
▁51	-10.767
gor	-10.7672
nti	-10.7674
▁Ph	-10.7677
ала	-10.7678
▁fins	-10.7681
ати	-10.7683
▁54	-10.7683
街	-10.7684
니	-10.7687
射	-10.7689
eb	-10.7689
▁того	-10.769
▁tele	-10.7691
▁شدهاست	-10.7691
0%	-10.7691
告	-10.7691
ח	-10.7693
▁twee	-10.7694
선	-10.7694
▁Ser	-10.7697
▁(2000)	-10.77
▁comune	-10.7701
▁út	-10.7703
▁само	-10.7704
▁Pra	-10.7705
平成	-10.7706
▁Gold	-10.7706
▁što	-10.7706
▁apan	-10.7706
▁norte	-10.7708
▁Ya	-10.7709
▁cel	-10.771
▁их	-10.771
過	-10.771
Na	-10.7712
idade	-10.7714
▁Mc	-10.7717
▁कि	-10.772
▁Bot	-10.7724
▁importante	-10.7724
▁Bell	-10.7725
త	-10.7726
ء	-10.7727
ह	-10.773
ول	-10.7731
gro	-10.7733
ว	-10.7734
▁1915	-10.7736
▁ఆ	-10.7739
nou	-10.7741
▁буенча	-10.7742
зе	-10.7742
feld	-10.7743
▁ele	-10.7744
05	-10.7747
ân	-10.7748
がある	-10.7749
▁musical	-10.7749
▁(2008)	-10.7749
лат	-10.775
kas	-10.7751
动	-10.7751
gia	-10.7752
罗	-10.7752
usi	-10.7753
▁Ка	-10.7754
dır	-10.7755
ið	-10.7758
bes	-10.7758
属	-10.7759
別	-10.776
ties	-10.7761
ral	-10.7767
▁न	-10.7769
▁front	-10.7772
▁Prix	-10.7773
▁klub	-10.7775
▁Κ	-10.7775
dag	-10.7779
▁dann	-10.7783
▁Portugal	-10.7786
▁Plants	-10.7787
▁Մ	-10.7788
▁ק	-10.7788
▁рас	-10.7789
су	-10.7789
cle	-10.7793
▁Fort	-10.7793
▁Internet	-10.7794
▁points	-10.7796
ació	-10.7798
▁δια	-10.7802
▁dla	-10.7802
ット	-10.7804
▁Kol	-10.7804
▁bus	-10.7805
▁zich	-10.7805
лин	-10.7806
▁Nu	-10.7806
▁1916	-10.7807
▁ആ	-10.7811
кан	-10.7812
sol	-10.7813
▁Ба	-10.7818
▁الع	-10.7819
mmer	-10.782
▁near	-10.782
▁poder	-10.782
▁mat	-10.7821
col	-10.7822
▁شهر	-10.7825
▁bị	-10.7825
تر	-10.7827
ալ	-10.7829
▁nalazi	-10.7829
▁Па	-10.7833
군	-10.7833
▁2011,	-10.7833
▁avant	-10.7835
در	-10.7837
▁1900	-10.784
cel	-10.7842
▁Are	-10.7845
▁Good	-10.7845
▁With	-10.7846
ல	-10.7846
▁ez	-10.7847
▁included	-10.7847
▁Arthropoda	-10.7847
▁2005,	-10.7849
ब	-10.7852
cion	-10.7855
▁Насеље	-10.7856
цы	-10.7856
▁Ende	-10.7857
中央	-10.7859
kul	-10.7859
श	-10.7862
▁Ко	-10.7863
ио	-10.7863
ته	-10.7866
▁pop	-10.7868
لی	-10.787
▁even	-10.7871
▁different	-10.7873
▁izan	-10.7873
从	-10.7879
put	-10.7882
▁Liga	-10.7887
～	-10.7887
▁kal	-10.7891
▁Mae	-10.7892
ত	-10.7894
じ	-10.7895
▁Cre	-10.7896
dak	-10.7896
▁2-	-10.7898
▁position	-10.7899
area	-10.7902
▁56	-10.7906
▁satu	-10.7912
య	-10.7915
nego	-10.7915
▁στη	-10.7916
ū	-10.7917
ical	-10.7919
ły	-10.792
▁ਅਤੇ	-10.7924
ował	-10.7925
▁Amerika	-10.7925
▁савезно	-10.7926
▁down	-10.7927
副	-10.7931
塔	-10.7931
62	-10.7932
liche	-10.7934
▁those	-10.7936
▁Gen	-10.7937
▁Els	-10.7937
▁בה	-10.7939
▁venne	-10.7942
liga	-10.7942
ск	-10.7944
saluran	-10.7946
eds	-10.7947
ях	-10.7949
ల్	-10.795
▁Cap	-10.7952
▁ஆ	-10.7952
▁Williams	-10.7953
▁како	-10.7954
Se	-10.7956
▁жана	-10.7958
▁died	-10.796
▁Camp	-10.7962
▁Estado	-10.7965
ray	-10.7965
zie	-10.7969
ities	-10.7969
ക്ക	-10.7971
▁Party	-10.7973
89	-10.7973
rou	-10.7976
▁Pedro	-10.798
▁Thompson	-10.7981
63	-10.7982
▁yer	-10.7983
▁années	-10.7986
▁2018.	-10.7986
▁kelas	-10.7987
▁Ap	-10.7989
龍	-10.7989
া	-10.799
anza	-10.799
ISBN	-10.7992
ù	-10.7993
ał	-10.7993
nal	-10.7998
ট	-10.7998
▁sent	-10.7999
によって	-10.8002
▁chính	-10.8002
▁very	-10.8003
▁все	-10.8005
▁1905	-10.8006
▁Բ	-10.8008
▁tro	-10.801
中心	-10.8011
▁third	-10.8012
低	-10.8012
▁professor	-10.8014
Be	-10.8015
▁sk	-10.8015
▁camp	-10.8016
99	-10.8017
ної	-10.8017
tr	-10.802
ун	-10.8022
▁trois	-10.8024
▁부	-10.8028
▁Av	-10.8031
vent	-10.8033
▁кӀошта	-10.8033
▁2015,	-10.8038
eli	-10.8038
▁सं	-10.8038
list	-10.8039
rà	-10.804
▁todos	-10.804
day	-10.8041
assa	-10.8042
ської	-10.8045
▁(2007)	-10.8047
▁Fi	-10.8053
▁Scott	-10.8056
▁nước	-10.8057
ém	-10.8065
ult	-10.8065
ės	-10.8069
(1	-10.8071
stre	-10.8071
ске	-10.8077
▁2000,	-10.8077
我	-10.8078
ಡ	-10.8079
▁1911	-10.8085
lic	-10.8086
▁andre	-10.8089
стан	-10.809
▁came	-10.8093
lie	-10.8094
▁ख	-10.8095
ף	-10.8097
▁Gemeinde	-10.8098
甲	-10.8101
达	-10.8109
ère	-10.8109
ッ	-10.8111
ને	-10.8112
kat	-10.8113
ไป	-10.8115
▁Power	-10.8119
▁Shi	-10.812
ად	-10.8124
▁Australian	-10.8126
▁volta	-10.8127
▁pl	-10.8127
▁वि	-10.8127
▁todo	-10.8128
▁Adam	-10.813
ис	-10.8132
▁otros	-10.8133
інің	-10.8134
No	-10.8138
▁term	-10.8139
▁hoa	-10.8141
▁Coleoptera	-10.8142
ా	-10.8142
▁personal	-10.8145
ö	-10.8145
▁Not	-10.8147
▁sam	-10.8148
总	-10.8148
59	-10.8149
▁marupok	-10.8151
وس	-10.8151
▁Ottawa	-10.8153
〜	-10.8154
۴	-10.8155
ay	-10.8155
elli	-10.8156
cions	-10.8157
▁orang	-10.816
vert	-10.8161
▁như	-10.8161
▁sto	-10.8163
令	-10.8165
▁Council	-10.8166
ული	-10.8166
該	-10.8168
isa	-10.817
▁Kom	-10.8171
▁yr	-10.8172
ити	-10.8173
▁ब	-10.8176
▁historia	-10.8176
▁ఈ	-10.8177
enne	-10.8178
▁град	-10.818
ney	-10.8181
▁ಬ	-10.8181
▁agus	-10.8182
лан	-10.8183
▁2:	-10.8186
▁בין	-10.8187
▁има	-10.8192
▁Bob	-10.8194
ną	-10.8194
ui	-10.8195
▁pil	-10.8197
비	-10.82
▁él	-10.8202
rze	-10.8206
バー	-10.8206
▁kot	-10.8206
кс	-10.821
▁poi	-10.8211
▁Ana	-10.8213
▁için	-10.8214
band	-10.8217
ده	-10.8218
▁Dans	-10.8221
lum	-10.8227
▁më	-10.8229
аш	-10.823
▁1908	-10.8232
47	-10.8232
』(	-10.8233
▁Atlas	-10.8235
ць	-10.8236
pal	-10.8237
sp	-10.8237
ların	-10.8239
▁ως	-10.824
مان	-10.824
▁después	-10.8242
▁ج	-10.8247
vad	-10.8247
ג	-10.8247
▁Version	-10.8248
▁vis	-10.825
ized	-10.825
Sa	-10.8254
▁ക	-10.8254
作品	-10.8261
tom	-10.8262
降	-10.8264
▁Kan	-10.8265
သည်	-10.8265
▁María	-10.8266
▁cidade	-10.8266
▁heeft	-10.8267
aka	-10.8267
▁України	-10.8267
▁grandes	-10.8269
▁τις	-10.8269
▁Fa	-10.8276
të	-10.8278
▁ப	-10.8278
▁special	-10.828
▁seinem	-10.8282
▁division	-10.8282
raz	-10.8283
atu	-10.8285
▁Bro	-10.8285
まで	-10.8286
▁caso	-10.8288
▁etwa	-10.8289
wie	-10.8294
tí	-10.8294
▁які	-10.8295
ór	-10.8295
永	-10.8296
▁(6	-10.8298
gli	-10.8299
▁what	-10.8299
▁Ч	-10.8299
카	-10.83
ein	-10.83
▁type	-10.83
որ	-10.8301
▁Sea	-10.8301
▁dr	-10.8303
▁Ա	-10.8307
’’	-10.8308
ம	-10.8312
▁project	-10.8314
业	-10.8316
▁Kara	-10.8316
ப்ப	-10.8319
اب	-10.8319
包括	-10.8321
ace	-10.8321
ья	-10.8322
▁Great	-10.8322
▁Francia	-10.8324
రి	-10.8325
▁jaar	-10.8327
пер	-10.833
▁tanggal	-10.833
▁ihre	-10.8332
▁jego	-10.8332
▁hem	-10.8333
vr	-10.8333
pon	-10.8337
세	-10.8342
劇	-10.8342
ಗಳನ್ನು	-10.8344
▁tant	-10.8346
▁pal	-10.8347
dí	-10.8347
nic	-10.8348
ника	-10.8348
vy	-10.8349
▁Wy	-10.835
ست	-10.8355
▁services	-10.8355
위	-10.8356
▁Sport	-10.8359
▁Ol	-10.8359
enberg	-10.836
단	-10.8362
β	-10.8363
tiva	-10.8363
ած	-10.8368
CD	-10.8368
▁country	-10.8369
▁була	-10.8371
▁cerca	-10.8375
▁Та	-10.8379
▁53	-10.8381
ವನ್ನು	-10.8385
▁અને	-10.8387
mur	-10.8387
▁Zo	-10.8389
▁że	-10.8389
▁سی	-10.839
▁title	-10.8393
ени	-10.8396
ови	-10.8398
ус	-10.8398
▁ਦੀ	-10.84
рус	-10.8401
ック	-10.8403
ザ	-10.8404
лись	-10.8407
▁live	-10.8411
▁大	-10.8414
ñ	-10.8416
خ	-10.8418
防	-10.8419
▁58	-10.842
▁Ли	-10.842
職	-10.8421
▁(12	-10.8423
▁Israel	-10.8423
Ha	-10.8424
▁start	-10.8424
یت	-10.8428
무	-10.8428
ե	-10.8428
報	-10.8429
nov	-10.8429
▁Spring	-10.843
无	-10.8432
kk	-10.8435
lea	-10.8436
▁Москва	-10.8436
▁Taxonomic	-10.8437
ove	-10.844
inter	-10.8441
十	-10.8444
▁imp	-10.8445
ரி	-10.8445
▁Plan	-10.8445
▁tiene	-10.845
▁temporada	-10.8452
语	-10.8456
佐	-10.8456
▁Show	-10.8458
▁piano	-10.846
春	-10.8461
▁Asia	-10.8463
lus	-10.8464
▁ने	-10.8465
ən	-10.8468
ric	-10.8471
▁është	-10.8472
イン	-10.8473
▁2003.	-10.8474
▁much	-10.8475
▁»,	-10.8475
▁short	-10.8478
oon	-10.8479
▁ara	-10.8481
▁gamay	-10.8481
يات	-10.8489
▁kayu	-10.8489
▁سر	-10.849
▁tanto	-10.8491
▁عدد	-10.8492
cker	-10.8492
▁250	-10.8495
غ	-10.8498
居	-10.8498
▁west	-10.8499
▁Gra	-10.85
일에	-10.85
ため	-10.8502
▁Sul	-10.8503
ヒ	-10.8506
aya	-10.8507
視	-10.8509
▁multi	-10.851
ική	-10.8515
pur	-10.8518
cre	-10.8519
▁الح	-10.8519
▁música	-10.852
iel	-10.8521
▁Old	-10.8522
声	-10.8522
rang	-10.8523
71	-10.8527
▁två	-10.8527
94	-10.8528
ప	-10.853
▁byla	-10.853
勝	-10.8531
ゴ	-10.8531
造	-10.8536
▁Mur	-10.8539
sil	-10.8542
бор	-10.8545
కు	-10.8546
چ	-10.8549
oi	-10.855
ô	-10.8552
ті	-10.8552
inn	-10.8553
จาก	-10.8553
ved	-10.8554
▁career	-10.8555
藤	-10.8556
考	-10.8558
ീ	-10.8559
▁Bir	-10.8559
▁pola	-10.856
▁head	-10.8561
▁че	-10.8561
▁role	-10.8563
▁grad	-10.8563
▁1000	-10.8564
els	-10.8567
ologi	-10.8567
ры	-10.8567
▁beim	-10.8567
▁Welt	-10.8568
ging	-10.857
▁Anti	-10.8574
▁súa	-10.8575
된	-10.8577
▁questo	-10.8577
தி	-10.8579
лась	-10.8579
▁make	-10.8581
Ma	-10.8583
▁Sand	-10.8583
▁fe	-10.8586
▁tek	-10.8588
▁نے	-10.8589
▁naselje	-10.8589
▁Ž	-10.8591
som	-10.8594
▁another	-10.8599
▁ilə	-10.86
heid	-10.86
inger	-10.8604
ந்த	-10.8607
▁Centre	-10.8608
▁President	-10.8609
▁taas	-10.8615
▁berg	-10.8616
▁tym	-10.8619
▁కేంద్రం	-10.8621
дин	-10.8624
▁Out	-10.8624
尾	-10.8626
每	-10.8627
▁Culture	-10.8628
▁آ	-10.8628
93	-10.8629
▁Kunst	-10.8631
▁подацима	-10.8632
▁weer	-10.8635
去	-10.8637
ט	-10.8637
▁Harry	-10.8637
lichen	-10.8638
лер	-10.864
装	-10.864
ത്	-10.8641
▁һыу	-10.8642
ено	-10.8642
ове	-10.8642
ط	-10.8643
вен	-10.8645
jal	-10.8645
tir	-10.8646
ld	-10.8647
▁mereka	-10.865
են	-10.8651
atus	-10.8651
इ	-10.8653
▁sự	-10.8653
▁Ла	-10.8653
mir	-10.8653
▁isang	-10.8654
▁Ort	-10.8656
문	-10.8659
▁Mount	-10.8659
uh	-10.866
79	-10.8662
▁57	-10.8663
nce	-10.8667
క్	-10.8668
委	-10.8668
便	-10.8668
▁동	-10.8673
▁development	-10.8674
▁End	-10.8675
▁Research	-10.8675
ča	-10.868
▁Will	-10.8681
์	-10.8682
오	-10.8684
攻	-10.8684
▁described	-10.8686
▁cost	-10.8687
তে	-10.8687
▁ihm	-10.8687
ít	-10.8688
학	-10.8689
▁Durante	-10.8689
稱	-10.8689
▁très	-10.8689
▁може	-10.869
▁Де	-10.869
▁diese	-10.8691
ذ	-10.8691
マン	-10.8692
▁Pas	-10.8692
▁moment	-10.8693
▁mismo	-10.8695
▁Mr	-10.8696
▁کار	-10.8698
▁(2006)	-10.8698
▁tout	-10.8699
िक	-10.87
▁bur	-10.8701
师	-10.8704
▁소	-10.8706
▁Gre	-10.871
▁News	-10.871
ない	-10.8712
rar	-10.8712
ै	-10.8714
uf	-10.8714
▁공	-10.8717
▁Manuel	-10.8718
ската	-10.8718
▁città	-10.8718
чин	-10.8722
vano	-10.8722
נה	-10.8722
▁най	-10.8723
▁hay	-10.8726
▁2002.	-10.8726
▁ব	-10.8727
bri	-10.8729
▁~	-10.8731
gun	-10.8732
▁хуьлу	-10.8734
500	-10.8735
▁among	-10.8735
▁durant	-10.8736
sar	-10.8737
식	-10.8738
▁թվականի	-10.8738
推	-10.8739
ത	-10.874
יים	-10.874
▁중	-10.8742
▁monde	-10.8744
회	-10.8745
ทาง	-10.8748
chy	-10.8749
cos	-10.8749
▁эвла	-10.875
э	-10.8751
除	-10.8751
plan	-10.8751
七	-10.8756
▁hon	-10.8756
관	-10.8756
▁×	-10.8757
▁té	-10.8758
ør	-10.8758
角	-10.876
uda	-10.8761
avi	-10.8763
tár	-10.8767
▁Blue	-10.8769
▁zuen	-10.877
▁میشود	-10.877
运	-10.8771
▁Home	-10.8773
jos	-10.8773
▁Sau	-10.8775
▁(2001)	-10.8775
▁studio	-10.8777
▁result	-10.8779
▁وي	-10.8779
▁שה	-10.8781
च	-10.8784
low	-10.8788
▁700	-10.879
만	-10.8791
▁let	-10.8791
ো	-10.8792
▁segundo	-10.8792
▁puede	-10.8793
ick	-10.8794
▁اک	-10.8795
თა	-10.8795
▁Kanada	-10.8796
▁ano	-10.8796
▁(2010).	-10.8799
▁seinen	-10.88
配	-10.8801
であり	-10.8801
▁മ	-10.8807
▁Argentina	-10.8808
lí	-10.8809
▁fire	-10.881
▁women	-10.8811
yer	-10.8811
ago	-10.8812
▁ham	-10.8813
久	-10.8813
ستان	-10.8819
soort	-10.8821
▁её	-10.8822
უ	-10.8823
▁Gal	-10.8826
▁comp	-10.8826
jet	-10.8827
▁Miss	-10.8827
▁öster	-10.8828
들	-10.8829
▁1906	-10.8831
우	-10.8831
▁jsou	-10.8834
▁כי	-10.8836
▁koja	-10.8837
▁Mag	-10.8837
▁case	-10.8838
▁ప	-10.8841
整	-10.8845
▁Ал	-10.8846
▁प्र	-10.8849
▁После	-10.8863
▁Ye	-10.8865
ije	-10.8868
▁Jr	-10.8869
▁ildə	-10.887
udi	-10.8872
▁oficial	-10.8873
фр	-10.8875
▁Africa	-10.8877
lá	-10.8881
skim	-10.8882
夏	-10.8882
ides	-10.8885
ек	-10.8885
▁leta	-10.8886
▁liegt	-10.8888
▁erste	-10.8889
ntes	-10.8891
▁یو	-10.8891
艦	-10.8892
▁я	-10.8895
▁construction	-10.8896
▁Copa	-10.8897
кон	-10.89
▁str	-10.89
З	-10.89
▁Ker	-10.8901
▁zurück	-10.8902
▁പ	-10.8906
▁antes	-10.8906
ungs	-10.8906
足	-10.8906
ение	-10.8907
▁Minister	-10.8909
pos	-10.8912
▁pak	-10.8912
ship	-10.8912
▁క	-10.8912
▁마	-10.8912
▁Sz	-10.8913
▁ги	-10.8913
▁guerre	-10.8914
ként	-10.8914
第二	-10.8916
cor	-10.8916
▁pur	-10.8918
ными	-10.8926
vod	-10.8926
бо	-10.8927
▁gra	-10.8928
સ	-10.8929
▁Hor	-10.893
ера	-10.8933
▁sch	-10.8933
vid	-10.8937
▁ಸ	-10.8937
vir	-10.8938
tem	-10.894
▁meer	-10.8941
ട	-10.8941
ும்	-10.8942
вод	-10.8945
▁Over	-10.8945
▁Ros	-10.8947
▁হয়	-10.8947
اں	-10.8948
վում	-10.8949
▁Jackson	-10.8951
運	-10.8953
▁অ	-10.8953
▁стал	-10.8953
أ	-10.8954
▁text	-10.8955
▁شده	-10.8956
шп	-10.8956
▁sos	-10.8956
▁open	-10.896
年代	-10.8961
jas	-10.8965
▁Trans	-10.8968
▁tipo	-10.8968
بر	-10.8969
▁Cer	-10.897
aus	-10.897
kke	-10.897
▁gia	-10.897
草	-10.8972
▁เป็น	-10.8974
▁2006-01-1	-10.8975
gr	-10.8975
സ	-10.8977
▁μ	-10.899
▁stor	-10.8992
ants	-10.8993
▁Army	-10.8995
▁mundo	-10.8996
ыр	-10.8996
▁који	-10.8999
▁Inc	-10.8999
▁bank	-10.9
住	-10.9
▁2004,	-10.9
ského	-10.9004
타	-10.9008
itas	-10.9008
▁Philip	-10.901
▁mem	-10.9015
亦	-10.9017
ೆ	-10.9021
結	-10.9021
▁gal	-10.9024
▁Chile	-10.9026
▁Dezember	-10.9026
▁2001.	-10.903
対	-10.903
破	-10.903
▁rei	-10.9031
ام	-10.9031
ਤ	-10.9033
▁sans	-10.9034
մ	-10.9034
▁(14	-10.9038
▁110	-10.9039
▁Western	-10.9039
▁ч	-10.9039
த	-10.9042
条	-10.9044
յան	-10.9044
mand	-10.9047
▁(10	-10.9049
▁(2004)	-10.9053
▁59	-10.9053
▁Dit	-10.9054
▁Mat	-10.9054
▁många	-10.9054
▁moved	-10.9054
وم	-10.9054
▁й	-10.9054
▁ông	-10.9055
▁تم	-10.9055
mia	-10.9056
▁presidente	-10.9056
nel	-10.9058
病	-10.9059
ъ	-10.906
张	-10.906
eve	-10.9061
pet	-10.9062
▁gemeente	-10.9063
▁España	-10.9065
▁Rat	-10.9065
▁IUCN	-10.9065
▁Sept	-10.9068
▁Region	-10.9069
tig	-10.9073
zh	-10.9076
|	-10.9077
계	-10.9077
▁Deutschland	-10.9077
▁Global	-10.9077
ær	-10.9079
400	-10.9083
ель	-10.9084
▁haar	-10.9086
eti	-10.9086
门	-10.9089
▁samo	-10.9091
▁Mari	-10.9091
78	-10.9091
象	-10.9091
å	-10.9091
uni	-10.9092
လ	-10.9095
ి	-10.9095
奇	-10.9098
人口	-10.91
▁Ken	-10.9101
▁groupe	-10.9102
ಗೆ	-10.9102
else	-10.9103
ば	-10.9109
良	-10.911
▁sede	-10.911
wal	-10.911
▁ಈ	-10.911
的な	-10.9114
lä	-10.9114
бу	-10.9114
ห	-10.9114
▁محمد	-10.9115
zin	-10.9117
▁կ	-10.9118
റ	-10.912
see	-10.9122
例	-10.9122
洛	-10.9122
sam	-10.9125
kus	-10.9126
典	-10.9128
من	-10.9129
73	-10.9131
দ	-10.9132
▁Ry	-10.9132
▁nó	-10.9132
ská	-10.9133
▁бу	-10.9133
یا	-10.9133
จ	-10.9133
dt	-10.9135
▁זה	-10.9137
жа	-10.9139
ру	-10.9139
▁Ji	-10.9142
bas	-10.9145
Ro	-10.9146
sum	-10.9149
勒	-10.915
▁кор	-10.9151
▁Haus	-10.9152
▁Lord	-10.9152
▁Diese	-10.9152
▁standard	-10.9153
ppen	-10.9155
香	-10.9155
友	-10.9155
lot	-10.9155
▁nelle	-10.9155
父	-10.9157
▁след	-10.9161
素	-10.9161
台湾	-10.9162
▁किया	-10.9165
anno	-10.9169
dé	-10.9169
রা	-10.9171
▁novel	-10.9171
▁meng	-10.9173
▁Joe	-10.9173
ע	-10.9174
▁round	-10.9175
oje	-10.9177
興	-10.9179
▁número	-10.9179
▁বা	-10.9179
地区	-10.9179
主要	-10.9182
▁аз	-10.9186
nici	-10.9188
▁Program	-10.9188
▁قرار	-10.9191
nym	-10.9191
נ	-10.9192
▁ומ	-10.9192
▁bere	-10.9192
▁որ	-10.9194
▁contro	-10.9195
▁famille	-10.9196
86	-10.9197
ség	-10.9198
тен	-10.9203
大學	-10.9205
▁father	-10.9205
▁miejsce	-10.9207
▁Га	-10.9208
▁(2009)	-10.9208
▁làm	-10.9209
공	-10.9212
▁order	-10.9213
賽	-10.9213
帝	-10.9213
▁economic	-10.9215
ソ	-10.9215
▁Wal	-10.9215
▁областан	-10.9216
▁Sha	-10.9221
▁або	-10.9221
▁Ball	-10.9222
賞	-10.9223
▁you	-10.9225
进	-10.9228
ès	-10.9228
▁Tal	-10.9228
ule	-10.9229
▁vin	-10.9231
想	-10.9232
tat	-10.9233
▁Мар	-10.9233
2).	-10.9235
▁sí	-10.9237
▁tema	-10.9239
oro	-10.9242
lje	-10.9244
▁professional	-10.9245
▁neu	-10.9245
哈	-10.9252
κ	-10.9253
▁Entre	-10.9253
往	-10.9254
▁qua	-10.9255
▁Germany	-10.9256
▁åt	-10.9258
園	-10.9258
电	-10.9261
▁information	-10.9263
▁Ant	-10.9267
▁až	-10.9268
bis	-10.9269
▁Parti	-10.9277
▁Vo	-10.9279
skap	-10.928
ному	-10.928
▁им	-10.9281
ոն	-10.9282
ण	-10.9283
命	-10.9283
▁মা	-10.9287
▁gada	-10.9287
▁nhà	-10.9287
engleski	-10.9289
68	-10.9289
表示	-10.9293
gov	-10.9293
▁(2001).	-10.9295
▁ple	-10.9296
▁gant	-10.9296
ër	-10.9297
▁mindre	-10.9298
平方公里	-10.9298
▁इस	-10.9299
▁nam	-10.9301
であった	-10.9303
iro	-10.9305
▁bit	-10.931
મ	-10.931
▁1901	-10.9311
▁1909	-10.9313
лов	-10.9314
▁März	-10.9315
ој	-10.9317
▁1884	-10.9318
▁població	-10.932
▁są	-10.9321
▁sitt	-10.9321
▁Đ	-10.9322
▁·	-10.9323
has	-10.9325
ví	-10.9326
bl	-10.9326
▁lại	-10.9327
▁quatre	-10.9327
▁power	-10.9328
▁often	-10.9328
ஸ்	-10.9328
▁ма	-10.933
則	-10.933
▁ol	-10.9331
▁İ	-10.9332
300	-10.9332
▁1902	-10.9333
则	-10.9334
▁större	-10.9334
lev	-10.9336
▁Cho	-10.9336
▁Rod	-10.9338
ते	-10.9338
▁Some	-10.9341
tions	-10.9342
gt	-10.9344
ಳ	-10.9345
ných	-10.9345
湖	-10.9345
tok	-10.9346
▁Δ	-10.9347
▁συν	-10.9347
▁PMID	-10.9348
▁προ	-10.9349
▁Johnson	-10.9349
▁así	-10.935
ている	-10.9352
▁gab	-10.9353
ฟ	-10.9354
▁tid	-10.9356
▁Sy	-10.9356
▁combat	-10.9358
нов	-10.9361
lands	-10.9362
▁vattendrag	-10.9363
▁plusieurs	-10.9363
▁72	-10.9365
town	-10.9365
hel	-10.937
▁south	-10.9372
▁Pop	-10.9377
лары	-10.9383
bukid	-10.9383
hof	-10.9384
▁Virginia	-10.9388
▁fino	-10.9389
根	-10.9389
▁reg	-10.939
▁sunt	-10.939
成立	-10.9391
▁Michel	-10.9391
ց	-10.9393
▁presenta	-10.9394
▁ö	-10.9396
gh	-10.9396
ੂ	-10.9397
ња	-10.9398
▁연	-10.9399
プ	-10.9401
博	-10.9401
ват	-10.9404
von	-10.9405
ningen	-10.9405
ود	-10.9406
키	-10.9406
との	-10.9409
นี้	-10.9411
эн	-10.9412
▁Paulo	-10.9415
▁sal	-10.9415
▁again	-10.9416
arna	-10.9416
borg	-10.9416
密	-10.9421
▁run	-10.9422
▁bor	-10.9426
▁tersebut	-10.9426
Li	-10.9426
▁stata	-10.9427
cis	-10.9427
َّ	-10.9428
tier	-10.9431
ি	-10.9431
yi	-10.9433
▁(2012)	-10.9435
▁style	-10.9435
兰	-10.9435
▁Register	-10.9436
مر	-10.9437
ť	-10.9438
ও	-10.9439
ған	-10.9439
▁через	-10.9441
-14	-10.9441
▁bot	-10.9443
▁win	-10.9443
国家	-10.9443
▁62	-10.9444
▁semi	-10.9447
▁состав	-10.9447
تا	-10.9451
▁Francis	-10.9452
ち	-10.9453
▁suite	-10.9456
antes	-10.9456
▁fast	-10.9456
▁Otto	-10.9456
į	-10.9456
ük	-10.9458
83	-10.9459
ors	-10.9459
To	-10.946
vez	-10.9462
rov	-10.9463
▁(2011)	-10.9463
▁porta	-10.9466
ово	-10.9467
owego	-10.9468
▁Stein	-10.9468
lak	-10.9471
▁человек	-10.9472
▁player	-10.9472
66	-10.9473
▁Русия	-10.9473
▁Sta	-10.9474
▁house	-10.9476
த்தில்	-10.9478
প	-10.9483
▁3-	-10.9484
ター	-10.9484
ост	-10.9485
▁Media	-10.9488
▁1907	-10.9488
գ	-10.9489
▁бойынша	-10.9489
لو	-10.949
▁mid	-10.9492
▁eran	-10.9494
ץ	-10.9495
etto	-10.9495
mek	-10.9495
▁foram	-10.9495
▁inn	-10.9497
win	-10.9502
▁late	-10.9503
িত	-10.9503
nay	-10.9503
傳	-10.9504
▁Spesies	-10.9504
గ	-10.9504
more	-10.9505
2000	-10.9506
▁63	-10.9506
▁Ç	-10.9507
▁koje	-10.9508
▁human	-10.9509
▁1890	-10.9511
num	-10.9511
ями	-10.9512
чы	-10.9516
ası	-10.9518
▁மற்றும்	-10.9521
iano	-10.9525
ró	-10.9526
당	-10.9531
▁Cat	-10.9534
▁Euro	-10.9536
신	-10.9536
оз	-10.9536
ування	-10.954
▁као	-10.954
▁fort	-10.9541
များ	-10.9545
tari	-10.9547
▁США	-10.9547
▁Foi	-10.9548
末	-10.9548
▁это	-10.9553
cra	-10.9554
▁student	-10.9554
団	-10.9555
ться	-10.9556
早	-10.9557
hed	-10.956
▁área	-10.9563
▁rep	-10.9564
領	-10.9565
ಂ	-10.9565
▁started	-10.9565
jes	-10.9567
▁також	-10.9568
ատ	-10.957
▁자	-10.9572
▁États	-10.9572
fel	-10.9572
2%	-10.9573
▁Qu	-10.9575
house	-10.9577
▁который	-10.9578
نین	-10.9578
sion	-10.9584
▁went	-10.9589
nud	-10.9591
▁Meyer	-10.9591
っ	-10.9592
む	-10.9592
▁במ	-10.9593
▁1904	-10.9594
▁momento	-10.9596
▁planet	-10.9597
ад	-10.9599
▁xã	-10.96
への	-10.9603
津	-10.9604
An	-10.9604
▁Ak	-10.9605
▁(9	-10.9606
itz	-10.9609
夜	-10.961
יות	-10.9611
▁भी	-10.9613
▁växer	-10.9617
番	-10.9621
说	-10.9621
▁21.	-10.9622
瓦	-10.9624
▁sulla	-10.9625
▁Iz	-10.9625
▁mesmo	-10.9626
tá	-10.9627
▁조	-10.9629
▁nebo	-10.963
▁net	-10.9632
▁normal	-10.9633
ਟ	-10.9633
ži	-10.9634
ით	-10.9634
▁tar	-10.9635
▁Natural	-10.9636
ะ	-10.9637
にも	-10.9637
▁beste	-10.9638
管理	-10.9639
▁baş	-10.964
▁take	-10.9641
▁hiện	-10.9645
▁ص	-10.9646
▁Win	-10.9647
কে	-10.9647
▁vagy	-10.9649
▁stand	-10.9649
ball	-10.9649
部分	-10.965
раз	-10.965
체	-10.9652
▁प	-10.9654
投	-10.9659
▁στις	-10.9659
▁عليه	-10.9664
▁Windows	-10.9664
als	-10.9664
▁এ	-10.9665
▁Кар	-10.9665
▁هم	-10.9666
▁rest	-10.9667
onia	-10.9669
сан	-10.967
ਪ	-10.967
▁ran	-10.9671
άν	-10.9672
▁Werner	-10.9672
▁Airport	-10.9675
ue	-10.9675
▁Department	-10.9677
▁polo	-10.9679
留	-10.968
▁avril	-10.968
▁Из	-10.9681
▁која	-10.9681
inae	-10.9681
▁Ս	-10.9682
▁ע	-10.9682
ort	-10.9683
▁són	-10.9683
▁African	-10.9683
▁한	-10.9685
▁hemiboreal	-10.9687
ath	-10.9688
pus	-10.9688
▁dag	-10.9688
▁DVD	-10.9692
Org	-10.9694
▁Sor	-10.9696
▁ovat	-10.9696
▁Line	-10.9699
Mexico	-10.97
▁který	-10.9705
երի	-10.9705
▁konnte	-10.9705
▁ம	-10.9706
▁Fo	-10.971
iku	-10.9713
▁samt	-10.9713
▁até	-10.9713
stat	-10.9714
▁waar	-10.9715
யில்	-10.972
▁Über	-10.972
▁mono	-10.9721
具	-10.9721
▁equipo	-10.9723
▁(13	-10.9723
yon	-10.9723
▁буйынса	-10.9724
房	-10.9726
▁Bra	-10.9728
▁động	-10.9731
▁buvo	-10.9731
grad	-10.9731
ony	-10.9731
pit	-10.9733
▁স	-10.974
▁junto	-10.9741
osti	-10.9743
实	-10.9744
▁Sim	-10.9746
eurs	-10.9746
▁jej	-10.9747
iques	-10.9748
▁gadā	-10.9749
▁Hier	-10.975
про	-10.9751
од	-10.9753
▁process	-10.9755
▁ਦਾ	-10.9755
▁primeiro	-10.9761
ము	-10.9762
တွင်	-10.9766
нд	-10.9767
▁Wilson	-10.9768
▁Series	-10.9769
US	-10.9771
ləri	-10.9771
67	-10.9772
▁место	-10.9772
▁become	-10.9775
ović	-10.9775
▁Chris	-10.9775
▁pays	-10.9775
▁hilab	-10.9775
▁quân	-10.9776
vil	-10.9776
its	-10.9779
െ	-10.9782
いた	-10.9786
utu	-10.9787
▁י	-10.979
añ	-10.979
ವು	-10.9791
จะ	-10.9793
▁È	-10.9793
ид	-10.9793
보	-10.9797
▁Те	-10.98
կ	-10.98
队	-10.9802
ché	-10.9803
ський	-10.9803
ара	-10.9803
▁реестры	-10.9804
▁München	-10.9806
▁Qui	-10.9806
yr	-10.9806
▁».	-10.9807
▁сахьт	-10.9807
ual	-10.9808
ward	-10.9809
ೀ	-10.9811
▁Two	-10.9811
rí	-10.9811
inde	-10.9813
mme	-10.9815
▁ד	-10.9815
esi	-10.9817
eu	-10.9818
ub	-10.9819
Ka	-10.982
▁race	-10.9821
rem	-10.9823
▁omgivningarna	-10.9823
ೈ	-10.9824
ει	-10.9824
▁고	-10.9825
ello	-10.9825
fall	-10.9826
ત	-10.9828
ика	-10.9831
▁Lan	-10.9833
ιν	-10.9833
▁Fue	-10.9834
નો	-10.9834
▁Casa	-10.9836
▁Eine	-10.9837
维	-10.984
▁tard	-10.9843
▁2016,	-10.9843
ър	-10.9846
▁비	-10.9846
▁Ε	-10.9847
▁Stephen	-10.9848
▁park	-10.9848
▁fine	-10.9849
維	-10.985
▁Anne	-10.985
▁fri	-10.985
▁medal	-10.9851
▁ر	-10.9851
▁sistem	-10.9852
прав	-10.9852
يل	-10.9857
▁bod	-10.9859
ngan	-10.9859
镇	-10.986
ří	-10.9862
ე	-10.9862
تی	-10.9865
има	-10.9865
當	-10.9866
λ	-10.9866
▁ned	-10.9867
▁Kong	-10.9867
▁aastal	-10.9871
τα	-10.9871
▁fund	-10.9873
ης	-10.9874
ног	-10.9874
▁він	-10.9875
Mo	-10.9877
stro	-10.9878
▁particular	-10.988
zio	-10.9881
该	-10.9881
▁От	-10.9884
ār	-10.9884
▁Jim	-10.9889
▁кар	-10.9889
ություն	-10.9889
▁Poly	-10.9891
хи	-10.9891
▁Cette	-10.9895
ү	-10.9895
▁spesies	-10.9896
reg	-10.9898
Sch	-10.9898
▁Stra	-10.9899
納	-10.9901
ാ	-10.9901
aja	-10.9902
▁సమీప	-10.9902
iske	-10.9903
ους	-10.9904
▁थाय्	-10.9908
▁1880	-10.9909
▁using	-10.9909
tore	-10.9909
kur	-10.991
▁iko	-10.9913
дел	-10.9914
▁Giovanni	-10.9922
▁ant	-10.9924
▁ал	-10.9924
▁spo	-10.9925
sha	-10.9926
她	-10.9926
超	-10.9929
▁level	-10.993
航	-10.9932
▁Об	-10.9932
▁deel	-10.9934
ಹ	-10.9936
▁yılında	-10.9936
▁यह	-10.9936
▁الن	-10.9937
付	-10.9938
华	-10.9943
▁Republic	-10.9947
▁Ви	-10.9947
ture	-10.9949
נו	-10.9951
ose	-10.9954
वा	-10.9958
ディ	-10.9958
▁Sh	-10.9958
▁These	-10.9963
▁muy	-10.9963
▁<	-10.9965
▁abril	-10.9965
рт	-10.9967
▁Musik	-10.9968
bon	-10.997
kra	-10.9972
▁website	-10.9978
▁juin	-10.9982
μα	-10.9983
ೂ	-10.9983
▁students	-10.9984
▁actual	-10.9985
▁pagkainila	-10.9985
▁rad	-10.9986
zem	-10.9988
▁programa	-10.9988
▁Om	-10.9989
▁թվականին	-10.9989
▁др	-10.999
лся	-10.999
ије	-10.9991
▁130	-10.9992
ορ	-10.9996
ק	-10.9997
hn	-11
ines	-11
▁Hon	-11.0002
ggi	-11.0003
▁består	-11.0003
▁també	-11.0004
ikan	-11.0004
schaft	-11.0009
警	-11.0011
学校	-11.0011
szt	-11.0012
▁festival	-11.0013
ping	-11.0013
▁Бу	-11.0013
奥	-11.0013
သော	-11.0015
iger	-11.0016
uv	-11.0017
enden	-11.0018
▁kwa	-11.0019
▁Ä	-11.0021
ോ	-11.0022
▁الذي	-11.0023
萬	-11.0024
тор	-11.0027
▁선	-11.0027
тин	-11.0027
▁few	-11.0028
ير	-11.0029
▁indica	-11.003
▁nuo	-11.0031
實	-11.0034
دی	-11.0036
▁alt	-11.0037
▁community	-11.0037
▁väster	-11.0039
ike	-11.0042
▁لم	-11.0043
蘭	-11.0044
ách	-11.0044
事件	-11.0045
gos	-11.0046
でも	-11.0049
ының	-11.005
ք	-11.005
▁siglo	-11.005
скан	-11.0052
▁distrito	-11.0052
▁established	-11.0052
施	-11.0052
▁début	-11.0053
▁rol	-11.0053
ход	-11.0054
▁Heinrich	-11.0057
▁thời	-11.0061
康	-11.0062
▁Human	-11.0066
▁Web	-11.0066
持	-11.0068
ś	-11.0068
伯	-11.0069
cht	-11.007
zon	-11.007
▁orden	-11.007
▁الف	-11.0071
▁Mus	-11.0075
க்கு	-11.0077
▁1897	-11.0078
▁Fin	-11.0078
黑	-11.0081
▁way	-11.0082
ას	-11.0084
▁реестр	-11.0085
되었다	-11.0087
▁sor	-11.0091
▁married	-11.0093
гі	-11.0093
না	-11.0093
డి	-11.0093
▁между	-11.0094
質	-11.0094
rk	-11.0095
our	-11.0097
▁persones	-11.0097
其他	-11.0097
fil	-11.0098
び	-11.0101
▁kod	-11.0102
▁Court	-11.0102
▁written	-11.0104
경	-11.0107
▁нь	-11.0107
▁jorden	-11.0109
ща	-11.011
ث	-11.011
▁kr	-11.0111
▁كانت	-11.0111
med	-11.0111
gol	-11.0112
ес	-11.0114
▁→	-11.0114
▁gu	-11.0115
▁করে	-11.0115
▁pin	-11.0117
▁Auto	-11.012
▁Сахь	-11.012
▁cultural	-11.0122
▁Franz	-11.0123
▁général	-11.0124
▁Pal	-11.0126
果	-11.0128
▁zusammen	-11.0129
พระ	-11.013
▁бел	-11.0132
тон	-11.0135
▁Arthur	-11.0136
quer	-11.0137
▁Nie	-11.0138
ас	-11.0141
▁nhất	-11.0143
яз	-11.0143
▁fler	-11.0143
バス	-11.0144
ール	-11.0145
kou	-11.0147
▁haben	-11.0147
▁Kirche	-11.0148
▁sve	-11.0152
▁ako	-11.0152
東京	-11.0152
點	-11.0156
▁ਅ	-11.0157
▁против	-11.0158
龙	-11.0159
▁Arts	-11.0159
oma	-11.016
▁پ	-11.016
ага	-11.016
▁Kap	-11.0161
▁dom	-11.0163
Ta	-11.0164
ؤ	-11.0164
▁old	-11.0165
▁VII	-11.0166
tha	-11.0166
եւ	-11.0166
参	-11.0167
nio	-11.0167
aron	-11.017
▁fois	-11.0172
tă	-11.0173
▁sign	-11.0174
▁Costa	-11.0175
ries	-11.0175
head	-11.0176
lad	-11.0176
II	-11.0177
▁Мексику	-11.0178
▁Une	-11.0178
▁الق	-11.018
だ	-11.018
▁next	-11.0183
▁मा	-11.0184
▁honor	-11.0186
▁juillet	-11.0188
гор	-11.0188
▁cer	-11.0189
▁2001,	-11.019
▁2003,	-11.0193
ulu	-11.0193
▁მო	-11.0193
▁Part	-11.0194
▁Bis	-11.0196
広	-11.0197
▁প্র	-11.0198
▁lasang	-11.02
▁(8	-11.0201
▁Ray	-11.0201
▁class	-11.0207
bir	-11.0207
ís	-11.0208
▁Ц	-11.021
luk	-11.0211
-01	-11.0211
itet	-11.0212
泰	-11.0216
icus	-11.0217
▁ela	-11.0218
ient	-11.0219
▁än	-11.022
▁մ	-11.022
传	-11.0223
▁বি	-11.0225
ટ	-11.0225
▁але	-11.0226
Mar	-11.0226
pil	-11.0228
תו	-11.0228
ೋ	-11.0228
uti	-11.0229
▁samhälle	-11.0233
ני	-11.0236
▁saison	-11.0237
rich	-11.0239
▁था	-11.024
ское	-11.0241
વ	-11.0245
back	-11.0245
說	-11.0247
▁Platz	-11.0247
▁glesbefolka	-11.0248
▁modo	-11.0252
▁1903	-11.0253
용	-11.0253
▁लिए	-11.0253
議	-11.0254
թ	-11.0257
usa	-11.0259
ید	-11.026
hm	-11.0261
▁Lewis	-11.0262
ద	-11.0262
▁вид	-11.0263
stadt	-11.0264
ean	-11.0264
iki	-11.0265
▁1895	-11.0265
▁route	-11.0266
▁exist	-11.0266
ας	-11.0268
▁Special	-11.027
▁get	-11.0273
▁septembre	-11.0274
▁Form	-11.0276
llen	-11.0276
置	-11.0276
▁நாள்	-11.0277
▁Met	-11.0278
bot	-11.0279
ώ	-11.028
▁Rose	-11.028
▁(2010)	-11.028
гер	-11.0281
活動	-11.0283
ním	-11.0284
ात	-11.0285
▁morte	-11.0285
uka	-11.0286
聖	-11.0287
ским	-11.0287
str	-11.0287
▁هذه	-11.0287
鎮	-11.0288
ερ	-11.0288
Unis	-11.0289
ティ	-11.0291
▁padre	-11.0296
▁Taylor	-11.0297
▁janvier	-11.0298
ír	-11.03
cing	-11.03
美国	-11.03
▁пра	-11.0302
فر	-11.0303
渡	-11.0303
▁XVI	-11.0304
▁free	-11.0306
端	-11.0306
ੋ	-11.0307
мі	-11.0307
▁už	-11.0308
京	-11.0308
过	-11.0309
ário	-11.031
ู	-11.0316
ating	-11.0316
för	-11.0316
▁1898	-11.0317
skih	-11.0318
▁وأ	-11.0318
▁memiliki	-11.0322
лет	-11.0325
ił	-11.0325
▁Да	-11.0327
▁gas	-11.0329
▁Dor	-11.0331
▁Universität	-11.0332
iche	-11.0333
▁прав	-11.0334
▁Ky	-11.0334
oja	-11.0336
▁த	-11.0336
sor	-11.0337
É	-11.0337
▁Jacques	-11.0338
▁dins	-11.0339
▁punkt	-11.0341
Ne	-11.0343
▁ste	-11.0346
▁более	-11.0346
▁epi	-11.0347
▁port	-11.0348
ias	-11.0353
▁norr	-11.0358
aq	-11.0359
コン	-11.0361
▁були	-11.0362
heit	-11.0364
▁labing	-11.0364
▁gar	-11.0364
نی	-11.0365
한다	-11.0366
▁신	-11.0367
ז	-11.0367
▁nordväst	-11.0367
Vi	-11.0368
▁që	-11.037
ppe	-11.0371
▁Ор	-11.0371
調	-11.0372
▁given	-11.0373
▁ин	-11.0376
社会	-11.0378
▁1899	-11.0381
tà	-11.0384
若	-11.0387
zna	-11.0389
ude	-11.0393
▁Wien	-11.0394
▁Hot	-11.0395
▁hab	-11.0395
▁pode	-11.0396
▁απο	-11.0396
할	-11.0403
ø	-11.0406
oides	-11.0407
rzy	-11.0409
员	-11.041
▁бил	-11.0411
ван	-11.0412
▁games	-11.0415
▁הה	-11.0416
ланд	-11.0418
tag	-11.0419
▁осіб	-11.0421
▁vita	-11.0424
▁Most	-11.0425
▁67	-11.0429
ischer	-11.0429
tico	-11.043
ワ	-11.0434
▁vý	-11.0434
産	-11.0435
▁ತ	-11.0436
zet	-11.0437
▁1870	-11.0438
▁Pin	-11.044
▁Names	-11.044
ând	-11.0443
dam	-11.0443
ták	-11.0444
토	-11.0444
▁sekä	-11.0445
illo	-11.0445
▁possible	-11.0445
▁various	-11.0447
▁Boy	-11.0447
▁пры	-11.0447
ซ	-11.0448
৫	-11.0449
행	-11.045
ヤ	-11.0451
ř	-11.0452
mine	-11.0454
▁इ	-11.0455
эр	-11.0456
▁half	-11.0458
eng	-11.0458
yu	-11.0461
ša	-11.0461
服	-11.0463
照	-11.0464
зу	-11.0465
▁Cy	-11.0466
年の	-11.0467
hé	-11.0467
xo	-11.047
Ш	-11.0471
۱	-11.0472
html	-11.0473
▁circa	-11.0475
料	-11.0479
アル	-11.0479
可能	-11.048
ती	-11.048
▁Bull	-11.0482
eck	-11.0483
מה	-11.0484
교	-11.0485
▁także	-11.0486
▁1896	-11.0489
Pro	-11.0492
▁Landes	-11.0492
一个	-11.0493
ọ	-11.0494
▁Río	-11.0494
▁announced	-11.0497
ság	-11.05
富	-11.0501
uit	-11.0501
rac	-11.0503
▁شہر	-11.0504
▁times	-11.0505
odi	-11.0508
uch	-11.0508
▁law	-11.0509
▁Columbia	-11.0509
Bo	-11.051
ությունը	-11.051
igo	-11.0512
▁munisipyo	-11.0513
▁Mei	-11.0513
▁encuentra	-11.0514
▁pře	-11.0514
▁بو	-11.0514
▁Service	-11.0516
ే	-11.0516
▁Mike	-11.0517
۶	-11.0517
处	-11.0517
eux	-11.0518
▁fall	-11.0518
送	-11.0519
▁−	-11.052
选	-11.0522
▁1,5	-11.0525
▁Boston	-11.0525
▁problem	-11.0527
▁quale	-11.0527
pek	-11.0529
wald	-11.0529
▁ind	-11.0531
iendo	-11.0531
▁Char	-11.0532
ικά	-11.0533
底	-11.0534
▁Malaysia	-11.0538
87	-11.0539
▁कर	-11.0542
מו	-11.0543
ave	-11.0545
判	-11.0545
▁Regional	-11.0548
but	-11.055
۷	-11.0551
赛	-11.0552
야	-11.0552
▁Korea	-11.0552
eni	-11.0554
olog	-11.0556
▁Seit	-11.0556
▁mü	-11.056
ақ	-11.0561
▁cũn	-11.0562
▁аб	-11.0563
▁թ	-11.0565
計	-11.0565
▁भारत	-11.0566
板	-11.0567
mé	-11.0567
▁(1996)	-11.0567
▁ஒரு	-11.0571
▁ко	-11.0572
▁sang	-11.0573
▁tous	-11.0573
▁mur	-11.0573
▁sempre	-11.0575
rel	-11.0578
▁lub	-11.0581
▁موقع	-11.0583
现	-11.0584
▁ја	-11.0586
ются	-11.0588
sis	-11.0588
▁individual	-11.0588
何	-11.0588
ža	-11.0592
დ	-11.0594
ahan	-11.0594
ണ	-11.0598
依	-11.0599
▁mare	-11.0601
▁Henri	-11.0602
Э	-11.0603
▁store	-11.0604
▁person	-11.0604
岩	-11.0604
▁primeira	-11.0605
nä	-11.0605
cija	-11.0606
连	-11.061
▁із	-11.0611
rsi	-11.0611
▁Saison	-11.0614
▁ihrer	-11.0615
▁1889	-11.0617
ās	-11.0617
▁Vin	-11.0618
▁které	-11.062
▁François	-11.062
ois	-11.0621
▁äbinon	-11.0621
▁โดย	-11.0622
vre	-11.0624
▁hor	-11.0626
▁gre	-11.0628
▁Cro	-11.0628
▁Final	-11.0631
৪	-11.0631
▁Ludwig	-11.0633
пис	-11.064
▁склад	-11.064
▁anderen	-11.0642
▁element	-11.0644
▁octobre	-11.0644
▁Public	-11.0644
▁То	-11.065
決	-11.0653
展	-11.0653
略	-11.0654
▁research	-11.0656
ві	-11.0657
節	-11.0657
▁الإ	-11.0658
▁dapat	-11.0658
▁Jahrhundert	-11.066
So	-11.0664
nit	-11.0664
со	-11.0668
▁autres	-11.0669
այ	-11.0671
စ	-11.0674
τ	-11.0675
fra	-11.0675
▁zá	-11.0676
▁индексаш	-11.0676
idi	-11.0677
ków	-11.0678
)،	-11.0679
tua	-11.068
▁22.	-11.0683
▁Närmast	-11.0685
▁XVIII	-11.0685
law	-11.0685
▁Ut	-11.0687
〉	-11.0687
pot	-11.0691
ност	-11.0693
▁95	-11.0697
▁Kra	-11.0698
ally	-11.0698
95	-11.0699
▁Бо	-11.07
▁extra	-11.07
▁।	-11.07
alt	-11.0701
mie	-11.0703
ain	-11.0706
▁Game	-11.0706
黨	-11.0707
▁dva	-11.0707
dores	-11.0708
ında	-11.0714
ζ	-11.0717
▁sú	-11.0718
ios	-11.0719
▁kuperad	-11.072
ಕ್	-11.0723
▁thị	-11.0723
най	-11.0723
▁Non	-11.0724
ਗ	-11.0724
備	-11.0725
▁help	-11.0725
ικό	-11.0726
차	-11.0726
Ver	-11.0726
ئ	-11.0728
切	-11.0729
▁ένα	-11.0731
uga	-11.0732
▁Ди	-11.0734
側	-11.0734
▁ای	-11.0737
ตัว	-11.0739
楽	-11.0739
Lo	-11.0741
▁जो	-11.0743
asta	-11.0744
▁release	-11.0744
ռ	-11.0745
כ	-11.0745
▁انگلیسی	-11.0746
▁ме	-11.0746
▁medy	-11.0747
lov	-11.0747
weg	-11.0748
▁पा	-11.075
▁ಹ	-11.075
اق	-11.0752
rol	-11.0756
él	-11.0756
▁th	-11.0756
chu	-11.0757
▁miêu	-11.0758
ские	-11.0758
گ	-11.0758
▁Ле	-11.076
сто	-11.076
での	-11.0761
▁Tim	-11.0765
esti	-11.0765
▁Fall	-11.0765
▁στα	-11.0766
▁Roger	-11.0767
یل	-11.0768
▁66	-11.077
▁kepada	-11.0771
▁Rob	-11.0772
grund	-11.0773
美國	-11.0774
▁성	-11.0775
top	-11.0776
▁stad	-11.0778
▁ihr	-11.0778
ches	-11.078
તા	-11.0782
▁Rom	-11.0786
▁Mis	-11.0787
▁Rome	-11.0788
▁ag	-11.0788
PDF	-11.0788
yt	-11.0789
lem	-11.079
▁тур	-11.079
▁j	-11.0792
ნ	-11.0794
-13	-11.0796
▁ing	-11.0797
▁შე	-11.0797
▁பார்த்த	-11.0798
Ba	-11.08
介	-11.0804
▁Your	-11.0804
才	-11.0804
排	-11.0805
88	-11.0806
▁sold	-11.0807
ości	-11.0811
廣	-11.0812
だった	-11.0812
ierung	-11.0812
▁1999.	-11.0812
▁dort	-11.0813
now	-11.0817
黄	-11.0817
straße	-11.0817
▁mest	-11.0817
▁హెక్టార్లు	-11.0818
▁event	-11.082
▁Nor	-11.0823
▁нийс	-11.0823
▁Eric	-11.0825
殺	-11.0825
▁שב	-11.0826
لا	-11.0829
ಣ	-11.0829
▁개	-11.0829
dzie	-11.083
▁Jawa	-11.083
▁клуб	-11.0832
▁Victoria	-11.0832
▁mellom	-11.0832
▁1991.	-11.0834
▁br	-11.0836
▁Vel	-11.0838
при	-11.0841
▁radi	-11.0841
▁Ку	-11.0842
级	-11.0842
▁Station	-11.0842
▁Af	-11.0844
▁trat	-11.0847
▁Mann	-11.0848
▁militar	-11.0849
▁време	-11.085
ics	-11.085
止	-11.0851
郎	-11.0852
eria	-11.0853
工作	-11.0853
▁Россий	-11.0855
▁является	-11.0857
▁Jon	-11.0857
▁140	-11.086
Man	-11.0863
크	-11.0863
▁Water	-11.0864
創	-11.0868
▁כל	-11.0869
▁Pour	-11.087
▁Steve	-11.087
▁Premier	-11.087
漢	-11.0874
▁astéroid	-11.0874
▁бер	-11.0874
▁Davis	-11.0877
▁every	-11.0879
▁lebih	-11.088
▁Ö	-11.0881
設	-11.0882
ா	-11.0882
▁having	-11.0883
祖	-11.0885
▁tussen	-11.0886
▁Hun	-11.0886
нь	-11.0887
▁Valley	-11.0887
ight	-11.0889
▁ary	-11.0891
tru	-11.0891
▁Free	-11.0892
▁план	-11.0892
voj	-11.0893
ată	-11.0895
۲	-11.0895
▁status	-11.0898
ీ	-11.0898
▁segunda	-11.09
від	-11.0902
▁contract	-11.0904
▁bin	-11.0904
ям	-11.0905
isation	-11.0907
ils	-11.0907
▁cast	-11.0907
osta	-11.0909
нда	-11.091
โดย	-11.091
▁without	-11.091
▁Jakarta	-11.0911
ions	-11.0912
▁Ent	-11.0915
ər	-11.0915
▁পা	-11.0916
ини	-11.0917
▁nära	-11.0917
ουν	-11.0919
lay	-11.092
▁През	-11.0921
ٹ	-11.0923
▁Gabriel	-11.0923
▁Oscar	-11.0924
▁Februar	-11.0925
▁document	-11.0928
▁sådana	-11.0929
69	-11.093
Pa	-11.0932
▁인	-11.0933
▁political	-11.0934
▁га	-11.0935
▁द	-11.0936
anta	-11.0937
▁бассейн	-11.0938
▁mà	-11.0938
▁Ру	-11.0939
ï	-11.094
▁Haupt	-11.0941
мет	-11.0942
▁Wall	-11.0944
ind	-11.0944
编	-11.0947
เม	-11.0947
▁Bru	-11.0949
之一	-11.095
asa	-11.0951
ým	-11.0951
ganska	-11.0952
▁68	-11.0954
▁bereits	-11.0956
pun	-11.0956
دیر	-11.0958
ň	-11.0958
▁Yo	-11.0959
索	-11.0961
▁however	-11.0961
▁आहे	-11.0961
▁1998.	-11.0962
▁ich	-11.0963
▁aktiv	-11.0967
uan	-11.097
ホ	-11.0973
▁produced	-11.0974
▁́	-11.0974
▁vu	-11.0975
६	-11.0975
▁ovanligt	-11.0975
映画	-11.0975
▁mont	-11.0976
php	-11.0976
▁الس	-11.0977
lom	-11.0977
▁επι	-11.0978
▁must	-11.0982
ி	-11.0983
▁Но	-11.0986
▁Latin	-11.0986
▁heute	-11.0986
君	-11.0986
▁skal	-11.0988
2012	-11.0989
pod	-11.0989
гар	-11.099
一個	-11.0991
▁(1998)	-11.0991
istic	-11.0991
▁бол	-11.0992
syahan	-11.0997
istes	-11.0999
▁Tam	-11.1
▁лелаш	-11.1001
▁kad	-11.1001
рі	-11.1003
վ	-11.1005
กัน	-11.1007
わ	-11.1007
ू	-11.1007
2009	-11.1011
▁Rosa	-11.1011
▁Planet	-11.1016
生活	-11.1018
▁Phil	-11.1019
▁سنة	-11.102
▁peu	-11.1021
▁Pur	-11.1021
ã	-11.1023
▁hin	-11.1024
ill	-11.1024
▁permet	-11.1025
zó	-11.1027
▁народ	-11.1027
fon	-11.1028
▁سن	-11.1029
主義	-11.1029
વા	-11.1032
৮	-11.1033
類	-11.1034
ében	-11.1034
▁Serie	-11.1035
封	-11.1041
▁első	-11.1041
▁Year	-11.1041
вр	-11.1042
▁هذا	-11.1044
▁Vis	-11.1044
▁Кон	-11.1047
▁ול	-11.1048
▁Alex	-11.1048
血	-11.1049
差	-11.1049
▁jämfört	-11.1049
▁Province	-11.1049
▁först	-11.1049
wang	-11.1054
▁Republik	-11.1056
▁Gil	-11.1058
▁Ram	-11.1059
▁court	-11.106
▁française	-11.1063
ائے	-11.1064
▁עד	-11.1067
▁Ele	-11.1068
ં	-11.1068
шы	-11.1069
▁kabukiran	-11.1069
бра	-11.107
eko	-11.107
skom	-11.1071
崎	-11.1074
秀	-11.1075
左	-11.1075
76	-11.1076
▁Wood	-11.1077
托	-11.1078
▁(1995)	-11.108
▁Florida	-11.108
▁Ham	-11.1082
цев	-11.1083
ે	-11.1083
▁나	-11.1084
▁suoi	-11.1084
okat	-11.1084
▁defini	-11.1085
dr	-11.1085
▁வி	-11.1087
▁κ	-11.1089
▁σ	-11.1089
▁förekomst	-11.1089
▁bak	-11.109
▁הא	-11.109
▁vend	-11.1091
เ	-11.1092
▁structure	-11.1094
▁indi	-11.1094
故	-11.1095
▁Ан	-11.1095
▁kapun	-11.1096
▁один	-11.1098
▁Ross	-11.1098
▁сам	-11.1099
存	-11.11
▁(11	-11.1101
▁fő	-11.1101
陽	-11.1102
第三	-11.1102
▁XV	-11.1106
▁municipal	-11.1108
▁Robinson	-11.111
▁新	-11.1112
▁जा	-11.1113
ગ	-11.1115
とは	-11.1116
▁Georg	-11.1116
只	-11.1118
gui	-11.1119
▁genomsnittlig	-11.1119
▁Signifikant	-11.1121
▁inwoners	-11.1121
mic	-11.1126
應	-11.1126
▁Force	-11.1127
▁minister	-11.1128
种	-11.1129
ction	-11.1131
▁ging	-11.1131
▁1,0	-11.1131
▁campo	-11.1132
▁kumbang	-11.1133
Ra	-11.1133
▁61	-11.1133
ék	-11.1136
′′	-11.1136
▁chef	-11.1138
ення	-11.1139
িক	-11.114
▁altri	-11.1141
ใช้	-11.1141
▁సంఖ్య	-11.1141
▁kommun	-11.1141
▁Back	-11.1142
▁aj	-11.1143
▁1999,	-11.1143
ция	-11.1143
▁Klein	-11.1147
▁Burg	-11.1148
▁97	-11.1149
۹	-11.1149
Con	-11.1152
aca	-11.1152
▁مت	-11.1155
рон	-11.1156
jon	-11.1158
▁manera	-11.116
year	-11.1163
▁Aires	-11.1164
▁regular	-11.1165
政治	-11.1166
▁Ivan	-11.1166
▁Cross	-11.1167
▁esp	-11.1168
▁vai	-11.1168
▁ח	-11.1172
播	-11.1172
û	-11.1173
ા	-11.1175
唐	-11.1176
ರಿ	-11.1176
جا	-11.1177
२	-11.1179
▁lain	-11.118
提供	-11.1181
ί	-11.1182
том	-11.1183
▁ligne	-11.1184
景	-11.1184
▁leg	-11.1189
isto	-11.119
画	-11.1193
ава	-11.1195
ții	-11.1195
岛	-11.1196
84	-11.1196
hon	-11.1199
▁vum	-11.1199
etan	-11.12
▁28.	-11.12
gur	-11.1201
▁language	-11.1203
Me	-11.1203
kol	-11.1204
ई	-11.1204
▁نو	-11.1205
▁pösod	-11.1205
▁בו	-11.1205
PS	-11.1206
▁regional	-11.1209
▁či	-11.121
▁nhiều	-11.1211
▁Terra	-11.1213
ол	-11.1214
▁yo	-11.1215
仁	-11.1216
рос	-11.1218
▁گ	-11.1219
২	-11.122
▁stra	-11.1221
▁television	-11.1221
ám	-11.1222
班	-11.1222
▁selv	-11.1223
▁complex	-11.1223
cat	-11.1225
వి	-11.1228
岡	-11.1228
▁date	-11.1229
osi	-11.123
▁آمریکا	-11.123
▁Londres	-11.123
▁avait	-11.1231
ug	-11.1232
ева	-11.1235
uc	-11.1235
▁bad	-11.1236
地方	-11.1237
旧	-11.1237
▁hành	-11.1237
ो	-11.1239
▁حيث	-11.124
ੀ	-11.1241
▁Hart	-11.1243
▁Dis	-11.1246
awpu	-11.1246
cin	-11.1247
வு	-11.1248
▁Mak	-11.125
edi	-11.1252
▁bộ	-11.1253
▁bay	-11.1256
ρα	-11.1257
▁stesso	-11.1257
gio	-11.1259
onne	-11.1261
ೊ	-11.1262
non	-11.1262
nova	-11.1262
▁הש	-11.1263
▁superficie	-11.1263
96	-11.1264
talet	-11.1264
owski	-11.1265
▁época	-11.1266
৩	-11.1266
▁Johannes	-11.1267
▁tudi	-11.1269
sid	-11.127
kai	-11.1273
▁ред	-11.1274
stvo	-11.1277
»։	-11.1278
լ	-11.1278
正式	-11.1279
▁XIII	-11.128
圖	-11.128
▁fond	-11.1281
▁Namen	-11.1284
ós	-11.1284
▁México	-11.1286
▁Book	-11.129
▁kol	-11.129
▁пад	-11.129
iska	-11.1293
ній	-11.1294
+3.	-11.1295
▁ک	-11.1295
zan	-11.1296
▁format	-11.1298
▁ту	-11.1299
idos	-11.13
▁topon	-11.13
▁tỉnh	-11.1301
▁23.	-11.1301
▁Č	-11.1302
▁Azərbaycan	-11.1302
▁created	-11.1305
وف	-11.1311
▁sjö	-11.1312
丹	-11.1313
氣	-11.1313
ラー	-11.1313
▁років	-11.1316
ਾ	-11.1316
▁Се	-11.1317
▁Fre	-11.1318
▁kali	-11.132
▁1885	-11.132
০	-11.132
▁Grund	-11.1321
▁ilk	-11.1321
▁décembre	-11.1321
▁plant	-11.1322
▁nationale	-11.1322
imp	-11.1323
▁Bernard	-11.1324
▁Mine	-11.1324
▁Cur	-11.1327
hir	-11.1328
rse	-11.1328
▁пар	-11.1329
ख	-11.133
▁города	-11.1332
▁gener	-11.1332
ją	-11.1335
ట	-11.1339
▁Integrated	-11.1339
▁Лу	-11.1342
▁municipio	-11.1342
很	-11.1343
▁30.	-11.1345
gle	-11.1345
▁Prema	-11.1348
uli	-11.1352
▁саны	-11.1353
nat	-11.1353
-05	-11.1354
▁inglés	-11.1354
▁Town	-11.1355
▁vice	-11.1355
▁ass	-11.1355
ポ	-11.1356
▁lead	-11.136
▁können	-11.1364
▁private	-11.1365
انی	-11.1366
вал	-11.1367
▁joined	-11.1368
▁Miguel	-11.1369
▁Reg	-11.1369
นา	-11.1369
▁dai	-11.1372
hang	-11.1377
▁તેમ	-11.1378
cji	-11.1382
▁구	-11.1382
▁Brian	-11.1383
민	-11.1384
mond	-11.1384
▁sotto	-11.1384
2010	-11.1384
▁disco	-11.1385
▁centrala	-11.1386
▁Cruz	-11.1386
▁Kun	-11.1387
▁erhielt	-11.1389
▁Buch	-11.1391
тай	-11.1393
။	-11.1393
▁stal	-11.1395
uro	-11.1396
▁Marc	-11.1397
డ	-11.1398
剧	-11.1398
移	-11.1399
▁stat	-11.1403
-3	-11.1403
rán	-11.1405
το	-11.1407
мор	-11.141
ké	-11.141
kle	-11.1411
▁Ро	-11.1412
uto	-11.1412
6%	-11.1412
塞	-11.1413
fan	-11.1415
eix	-11.1417
▁гор	-11.1417
▁قبل	-11.1418
▁hanno	-11.1418
nun	-11.1419
업	-11.1419
▁1:	-11.1419
▁Alt	-11.1419
▁sia	-11.142
yar	-11.142
ာ	-11.1421
▁fase	-11.1422
▁Marco	-11.1426
飛	-11.1427
▁studi	-11.1428
▁ս	-11.1428
▁Main	-11.143
He	-11.143
фа	-11.1433
alla	-11.1435
φ	-11.1435
▁estaven	-11.1435
жи	-11.1435
▁katika	-11.1435
ости	-11.1436
恩	-11.1436
▁זו	-11.1437
▁85	-11.1437
영	-11.1437
▁Ж	-11.1437
ก็	-11.1438
cca	-11.1439
抗	-11.144
ders	-11.144
處	-11.1442
▁také	-11.1442
▁mutta	-11.1443
டி	-11.1445
▁tarde	-11.1446
ont	-11.1447
▁mission	-11.1447
▁ه	-11.1449
▁ос	-11.1449
▁Wales	-11.145
▁terra	-11.145
▁உ	-11.145
総	-11.1452
터	-11.1452
▁김	-11.1455
ään	-11.1455
▁Tai	-11.1456
予	-11.1457
▁phát	-11.1457
hus	-11.1459
dit	-11.146
ments	-11.1461
ёр	-11.1462
act	-11.1463
lect	-11.1463
not	-11.1463
σ	-11.1464
▁Francesco	-11.1464
印	-11.1465
종	-11.1465
▁east	-11.1465
▁According	-11.1467
短	-11.1467
eks	-11.1468
▁мен	-11.1469
▁q	-11.1474
▁Alan	-11.1475
▁який	-11.1475
▁Mir	-11.1476
cido	-11.1477
cri	-11.1477
▁ihn	-11.1477
født	-11.1478
▁δ	-11.1478
оьрс	-11.1478
报	-11.1479
ści	-11.1479
лось	-11.1479
位於	-11.148
獎	-11.1481
idá	-11.1482
洋	-11.1482
▁Ford	-11.1483
▁Mundial	-11.1484
▁sammen	-11.1485
ಾ	-11.1487
▁אי	-11.1491
▁plat	-11.1491
лік	-11.1493
▁Ag	-11.1493
ವಿ	-11.1495
kong	-11.1496
盛	-11.1496
▁Battle	-11.1497
▁Micro	-11.1497
▁వి	-11.1499
▁nagy	-11.1501
fort	-11.1501
▁Zealand	-11.1502
▁Other	-11.1504
▁active	-11.1505
▁ந	-11.1506
ына	-11.1508
▁Тур	-11.1509
bli	-11.151
nder	-11.1511
gl	-11.1512
бе	-11.1513
然	-11.1513
unda	-11.1514
國家	-11.1514
▁Tony	-11.1517
▁reform	-11.1517
ент	-11.1518
ped	-11.1518
▁tip	-11.1519
bla	-11.1519
▁ಪ್ರ	-11.1521
▁71	-11.1522
▁গ	-11.1523
▁מת	-11.1523
пол	-11.1524
hui	-11.1524
影	-11.1525
enti	-11.1526
右	-11.1526
风	-11.1526
▁akan	-11.1527
▁మ	-11.1528
ls	-11.1529
oto	-11.153
▁worked	-11.1532
▁ಪ	-11.1537
魔	-11.1537
▁Ez	-11.1538
یه	-11.1539
▁right	-11.1543
▁grav	-11.1543
▁Hen	-11.1547
▁Mayo	-11.1549
נות	-11.155
▁ప్ర	-11.1553
သ	-11.1553
▁69	-11.1553
γ	-11.1554
की	-11.1555
▁Jar	-11.1556
▁superior	-11.1558
aient	-11.1559
ਣ	-11.1559
▁település	-11.1559
▁República	-11.1561
▁Space	-11.1562
▁Mah	-11.1564
▁века	-11.1565
▁част	-11.1568
프	-11.1568
▁dello	-11.1569
ß	-11.157
▁Women	-11.1572
▁rod	-11.1574
▁Como	-11.1575
▁mint	-11.1575
meister	-11.1575
▁Chu	-11.1575
▁peng	-11.1576
▁మరియు	-11.1577
▁eit	-11.1578
ազ	-11.158
ća	-11.1581
▁máis	-11.1583
స	-11.1583
▁posto	-11.1585
kker	-11.1586
anna	-11.1587
▁ή	-11.1589
▁vel	-11.1589
▁Alfred	-11.1591
▁ज	-11.1594
▁Disney	-11.1595
▁Victor	-11.1596
▁1894	-11.1597
ൈ	-11.1598
stu	-11.1598
▁field	-11.1599
▁Կ	-11.16
▁Dol	-11.1601
優	-11.1606
ပ	-11.1608
ilor	-11.161
нар	-11.1611
▁Play	-11.1611
▁Wild	-11.1612
1%	-11.1613
tax	-11.1615
hem	-11.1615
看	-11.1616
▁zuten	-11.1616
▁ค	-11.1616
▁Prince	-11.1617
▁Een	-11.1617
кой	-11.1617
재	-11.1618
▁secondo	-11.1619
▁미	-11.1619
▁Marso	-11.162
2008	-11.1621
ema	-11.1621
OL	-11.1621
▁2017,	-11.1622
ń	-11.1623
اس	-11.1623
▁സ	-11.1628
Po	-11.1628
part	-11.1629
▁business	-11.1629
പ	-11.163
中的	-11.1631
ann	-11.1631
stä	-11.1631
2014	-11.1636
▁900	-11.1636
anie	-11.1637
▁2002,	-11.1637
▁Russell	-11.1638
lab	-11.1639
▁био	-11.1642
▁ek	-11.1642
ಪ	-11.1645
▁Pr	-11.1646
وي	-11.1646
gó	-11.1647
ջ	-11.1647
▁Хо	-11.1648
▁miles	-11.1649
▁Tele	-11.1652
▁իր	-11.1652
▁UEFA	-11.1652
▁š	-11.1654
פ	-11.1656
这	-11.1657
દ	-11.1659
▁eu	-11.1659
伝	-11.166
▁actor	-11.1663
~	-11.1665
εί	-11.1666
лек	-11.1667
▁projekt	-11.1668
▁ریاست	-11.1668
▁Ann	-11.167
court	-11.1672
▁Hay	-11.1673
▁27.	-11.1673
pha	-11.1673
プロ	-11.1674
▁Professor	-11.1674
▁Natur	-11.1674
▁don	-11.1678
ろ	-11.1678
▁nordost	-11.1681
▁Pape	-11.1682
▁(1999)	-11.1687
ān	-11.1688
▁rus	-11.1688
還	-11.1688
▁Commons	-11.1689
77	-11.1689
▁beiden	-11.1693
ნა	-11.1693
▁août	-11.1694
▁ਸ	-11.1694
)։	-11.1694
▁kop	-11.1694
▁magyar	-11.1696
ып	-11.17
图	-11.1704
▁Ки	-11.1705
BS	-11.1706
▁ਪ	-11.1706
アン	-11.1707
▁1892	-11.171
wing	-11.1711
▁ગામ	-11.1711
示	-11.1711
escu	-11.1712
пи	-11.1714
出版	-11.1715
▁उ	-11.1716
サン	-11.1716
▁light	-11.1718
▁lei	-11.172
▁אך	-11.172
2007	-11.172
▁ft	-11.1722
colo	-11.1723
▁Сан	-11.1724
▁نیز	-11.1725
▁nh	-11.1725
▁tiempo	-11.1726
sı	-11.1726
▁Mitglied	-11.1727
▁Som	-11.173
▁Ara	-11.1735
kos	-11.1736
▁Bas	-11.1738
監督	-11.1738
▁Res	-11.1739
gie	-11.1742
▁Tag	-11.1746
▁mez	-11.1746
ыя	-11.175
Di	-11.175
▁Գ	-11.1752
▁Cra	-11.1752
ões	-11.1753
»)	-11.1754
ize	-11.1758
հ	-11.1759
▁99	-11.1759
از	-11.1759
ust	-11.176
▁1893	-11.176
▁wrote	-11.1761
sent	-11.1763
ケ	-11.1763
親	-11.1764
▁zituzten	-11.1766
hall	-11.1766
▁sendo	-11.1768
▁notamment	-11.1768
气	-11.1769
▁yari	-11.1769
000	-11.1769
პ	-11.177
တ	-11.177
ി	-11.1772
梅	-11.1772
▁Wikimedia	-11.1772
inus	-11.1772
jä	-11.1772
otta	-11.1773
pie	-11.1773
っている	-11.1774
▁track	-11.1776
▁מו	-11.1777
ість	-11.1778
▁där	-11.1778
▁transfer	-11.1779
▁Billboard	-11.178
რი	-11.1781
▁Amsterdam	-11.1781
毛	-11.1781
ový	-11.1783
pul	-11.1783
▁significa	-11.1785
▁organ	-11.1786
▁Universidad	-11.1786
hol	-11.1788
▁nova	-11.1788
▁Совет	-11.1789
▁Golden	-11.1789
वि	-11.1789
牌	-11.179
ურ	-11.1791
▁Ari	-11.1791
▁צ	-11.1791
وی	-11.1792
▁söder	-11.1793
位于	-11.1795
ее	-11.1796
rek	-11.1796
▁forces	-11.1797
ენ	-11.1799
▁Master	-11.1799
▁Arab	-11.1799
▁후	-11.1801
▁Canadian	-11.1802
elles	-11.1802
喜	-11.1802
وان	-11.1803
în	-11.1804
▁principale	-11.1804
연	-11.1805
▁Rot	-11.1808
爱	-11.1809
▁rapport	-11.181
▁ди	-11.181
-4	-11.1811
tim	-11.1812
▁anterior	-11.1815
러	-11.1817
▁Hell	-11.1819
▁جا	-11.1823
▁bl	-11.1823
esa	-11.1823
▁일	-11.1826
▁Catholic	-11.1826
▁während	-11.1827
▁uso	-11.1828
este	-11.1829
▁région	-11.183
▁Fox	-11.1832
▁Buenos	-11.1832
овой	-11.1833
owym	-11.1833
्य	-11.1834
▁ਨੂੰ	-11.1836
▁дел	-11.1836
自由	-11.1838
७	-11.1839
▁Pont	-11.1842
tit	-11.1842
ень	-11.1842
▁Opera	-11.1843
▁Neo	-11.1844
ış	-11.1845
▁ใน	-11.1846
▁works	-11.1847
▁bajo	-11.1847
▁iku	-11.185
▁Mars	-11.1851
头	-11.1852
▁సౌకర్యం	-11.1852
ดี	-11.1852
▁church	-11.1852
ణ	-11.1852
ไม่	-11.1852
▁متر	-11.1853
huvudsakligen	-11.1854
▁це	-11.1854
park	-11.1854
бар	-11.1854
dol	-11.1854
▁Chinese	-11.1854
▁5,	-11.1855
ových	-11.1856
▁story	-11.186
зі	-11.1861
८	-11.1861
▁Federal	-11.1861
aires	-11.1863
тел	-11.1864
▁ларар	-11.1864
ძ	-11.1866
▁него	-11.1867
arte	-11.1867
800	-11.1867
交通	-11.187
2001	-11.187
▁Fernando	-11.1871
alo	-11.1871
dri	-11.1871
▁января	-11.1874
ਦ	-11.1874
▁Hand	-11.1877
▁legal	-11.1878
▁More	-11.1878
력	-11.1878
ologia	-11.1879
recht	-11.188
女性	-11.188
製	-11.1884
▁ent	-11.1886
▁Ohio	-11.1886
лю	-11.1887
cul	-11.1888
▁kul	-11.189
▁considered	-11.1891
600	-11.1892
▁Nature	-11.1892
▁soit	-11.1893
۳	-11.1893
▁forme	-11.1895
精	-11.1897
察	-11.1901
▁homes	-11.1902
eth	-11.1902
▁Carolina	-11.1903
岸	-11.1903
wick	-11.1903
▁át	-11.1904
oh	-11.1907
▁1886	-11.1907
组	-11.1907
३	-11.1909
▁(1997)	-11.191
amo	-11.191
ên	-11.1916
公里	-11.1916
лық	-11.1918
ization	-11.1919
▁зна	-11.1919
лык	-11.192
▁daughter	-11.192
▁هر	-11.1921
▁них	-11.1921
دار	-11.1921
jin	-11.1922
▁центр	-11.1922
▁XIV	-11.1922
ars	-11.1923
▁returned	-11.1929
ത്ത	-11.1933
▁Kultur	-11.1933
یر	-11.1933
եց	-11.1934
▁inte	-11.1935
▁1891	-11.1936
▁1888	-11.1936
▁только	-11.1936
2016	-11.1936
▁után	-11.1937
▁secolo	-11.1938
▁Geschichte	-11.1939
御	-11.1942
网	-11.1942
▁province	-11.1943
모	-11.1945
▁tekst	-11.1946
▁Kreis	-11.1947
籍	-11.1947
▁став	-11.1947
iran	-11.1948
Qu	-11.1951
ულ	-11.1952
०	-11.1953
ப	-11.1954
نگ	-11.1954
▁член	-11.1955
zor	-11.1957
qua	-11.1957
▁88	-11.1957
ье	-11.196
▁Light	-11.1963
▁29.	-11.1963
▁addition	-11.1963
anda	-11.1965
▁Stone	-11.1967
▁Major	-11.1967
▁바	-11.1968
ência	-11.197
▁Sci	-11.1974
ეს	-11.1975
▁report	-11.1978
▁Amb	-11.1982
צ	-11.1983
▁august	-11.1986
ో	-11.1987
▁nes	-11.1988
▁Мо	-11.1988
ax	-11.1994
▁03	-11.1995
▁서	-11.1995
bio	-11.1996
ವಾಗಿ	-11.1997
▁ли	-11.1998
임	-11.2
▁4,	-11.2001
▁pää	-11.2001
算	-11.2002
▁Bio	-11.2003
▁SS	-11.2003
kka	-11.2003
復	-11.2005
▁около	-11.2008
などの	-11.2008
▁nr	-11.201
ː	-11.2011
jat	-11.2011
graf	-11.2011
▁96	-11.2012
因此	-11.2017
▁елга	-11.202
lina	-11.202
把	-11.202
▁Norman	-11.2023
護	-11.2023
și	-11.2024
▁ε	-11.2025
вы	-11.2027
hara	-11.2027
larda	-11.2029
ūr	-11.2031
▁도	-11.2033
▁дәүләт	-11.2033
ката	-11.2036
▁много	-11.2037
ox	-11.2037
▁Verlag	-11.204
ged	-11.2042
▁Run	-11.2043
▁(1):	-11.2046
▁avoir	-11.2046
aci	-11.2048
▁Provincia	-11.2049
▁direct	-11.205
▁body	-11.2053
▁episode	-11.2054
nden	-11.2054
赤	-11.2055
▁Ia	-11.2056
ც	-11.2056
▁EP	-11.2057
▁donc	-11.2058
▁న	-11.2058
▁origin	-11.2059
չ	-11.2059
kut	-11.2061
▁staat	-11.2062
航空	-11.2064
had	-11.2067
lei	-11.2068
wr	-11.2069
▁Jacob	-11.207
▁disc	-11.2071
▁род	-11.2072
▁edition	-11.2073
ど	-11.2074
▁Project	-11.2074
▁78	-11.2075
டு	-11.2078
бы	-11.2078
cent	-11.2079
智	-11.208
▁Tak	-11.2081
▁Lady	-11.2081
kla	-11.2082
jel	-11.2083
▁faire	-11.2084
jev	-11.2087
▁sou	-11.2088
▁تو	-11.2088
ข	-11.2088
▁który	-11.2091
旅	-11.2092
Co	-11.2094
▁77	-11.2095
tle	-11.2096
မှ	-11.2098
হ	-11.2099
egi	-11.2101
ין	-11.2102
轉	-11.2106
tera	-11.2107
וק	-11.2107
▁Frei	-11.2108
▁မ	-11.211
জ	-11.2111
▁76	-11.2111
应	-11.2112
▁ذلك	-11.2112
kaz	-11.2116
աղ	-11.2116
bie	-11.2117
遠	-11.2118
▁жер	-11.2121
ப்பு	-11.2121
hold	-11.2123
▁Kh	-11.2125
速	-11.2126
род	-11.2126
▁Winter	-11.2126
▁հետ	-11.2131
▁encore	-11.2131
▁Roy	-11.2132
▁cours	-11.2133
tique	-11.2133
▁VIII	-11.2133
ью	-11.2133
▁Dun	-11.2134
ssä	-11.2136
५	-11.2138
▁platt	-11.2139
эл	-11.2139
▁Second	-11.2139
最高	-11.214
▁Movie	-11.214
unt	-11.2141
ণ	-11.2141
▁Wasser	-11.2142
▁continued	-11.2145
개	-11.2147
▁Kas	-11.2147
ako	-11.2148
▁장	-11.2149
▁quien	-11.215
▁ty	-11.2151
▁Director	-11.2151
變	-11.2154
▁1848	-11.2154
hoz	-11.2154
巻	-11.2157
》,	-11.2158
ட்ட	-11.2158
▁Après	-11.2161
▁היו	-11.2163
▁Mala	-11.2166
אל	-11.2166
ピ	-11.2166
ində	-11.2167
▁election	-11.2168
权	-11.2169
▁код	-11.217
iyembre	-11.217
▁poli	-11.217
境	-11.2171
อร์	-11.2172
แห่ง	-11.2173
▁departamento	-11.2173
▁Кор	-11.2173
▁פ	-11.2174
宣	-11.2175
थ	-11.2176
▁nouveau	-11.218
зер	-11.2182
אי	-11.2183
▁politique	-11.2185
▁lag	-11.2188
ného	-11.2191
sport	-11.2191
rig	-11.2193
制作	-11.2193
▁siendo	-11.2196
▁distribu	-11.2198
light	-11.2199
▁sti	-11.2201
sagaran	-11.2202
▁73	-11.2203
▁premi	-11.2204
占	-11.2204
เมือง	-11.2205
▁hag	-11.2206
cken	-11.2206
ია	-11.2207
▁política	-11.2207
она	-11.2208
પ	-11.2208
程	-11.221
▁arte	-11.2211
४	-11.2211
▁seorang	-11.2212
▁Μ	-11.2215
▁ανα	-11.2215
▁ಇ	-11.2217
番組	-11.2218
▁quốc	-11.2218
▁Ха	-11.2218
каз	-11.222
▁[[	-11.2221
断	-11.2221
▁Он	-11.2221
char	-11.2221
czy	-11.2221
нем	-11.2223
玉	-11.2224
▁Ac	-11.2224
▁പ്ര	-11.2224
▁Andrew	-11.2224
▁ха	-11.2225
يم	-11.2226
他的	-11.2227
▁Ash	-11.2227
▁Civil	-11.2228
isse	-11.2228
承	-11.223
ір	-11.2233
yang	-11.2233
▁1860	-11.2235
▁lieu	-11.2235
▁ซึ่ง	-11.2235
▁чи	-11.2236
▁két	-11.2236
gg	-11.2237
▁days	-11.2237
toria	-11.2238
ине	-11.2238
ность	-11.2239
▁Elizabeth	-11.2239
▁example	-11.2239
▁corpo	-11.2239
▁cro	-11.224
▁cara	-11.2242
sing	-11.2242
enda	-11.2243
▁جمعیت	-11.2243
cur	-11.2245
▁त	-11.2246
tul	-11.2247
▁(1994)	-11.2249
2011	-11.225
給	-11.2253
▁Committee	-11.2253
teen	-11.2255
bok	-11.2256
лив	-11.2258
▁diesem	-11.2258
pper	-11.2259
hit	-11.226
teri	-11.2262
▁together	-11.2266
▁1.0	-11.2266
▁moins	-11.2267
-5	-11.2269
रे	-11.2271
▁Pakistan	-11.2274
设	-11.2275
oy	-11.2276
▁Nat	-11.2278
cro	-11.2282
▁titre	-11.2283
▁refer	-11.2284
希	-11.2285
ká	-11.2286
ез	-11.2288
תי	-11.2288
nji	-11.229
жен	-11.2291
▁février	-11.2292
▁Pennsylvania	-11.2295
▁गया	-11.2295
▁XII	-11.2298
▁ор	-11.2299
운	-11.2301
नी	-11.2302
▁Santo	-11.2303
にある	-11.2307
▁એક	-11.2307
嘉	-11.2308
에는	-11.2309
查	-11.2311
లి	-11.2312
▁Ost	-11.2312
sberg	-11.2312
aco	-11.2314
ור	-11.2314
▁Ə	-11.2315
▁Ron	-11.2316
▁ವಿ	-11.2316
역	-11.2317
▁ska	-11.2318
限	-11.2318
▁26.	-11.2319
▁khác	-11.2321
▁että	-11.2321
▁lunet	-11.2321
bé	-11.2323
突	-11.2323
▁Office	-11.2325
နှင့်	-11.2325
ペ	-11.2326
hatag	-11.2327
▁Patrick	-11.2328
serv	-11.2331
oko	-11.2332
權	-11.2334
英語	-11.2335
▁Gro	-11.2335
▁մի	-11.2336
▁letter	-11.2337
▁राज्य	-11.2338
dale	-11.2338
▁yra	-11.2339
進行	-11.2342
求	-11.2344
▁cuenta	-11.2345
رو	-11.2345
▁Für	-11.2349
New	-11.2349
▁Trung	-11.235
▁नि	-11.235
▁francesa	-11.235
sso	-11.235
շ	-11.2351
▁molto	-11.2352
post	-11.2352
తో	-11.2353
▁masa	-11.2354
雄	-11.2355
노	-11.2356
ね	-11.2357
▁musik	-11.2359
▁mes	-11.236
▁كما	-11.236
▁menos	-11.2361
ավ	-11.2362
衛	-11.2363
▁Budapest	-11.2364
▁seguito	-11.2364
存在	-11.2365
▁eren	-11.2367
▁Milan	-11.2368
ια	-11.2371
▁Wikipedia	-11.2373
▁सु	-11.2375
ถ	-11.2376
▁collection	-11.2377
▁82	-11.2377
▁founded	-11.2377
▁강	-11.2377
▁74	-11.2378
屬	-11.2379
▁periodo	-11.2379
▁party	-11.2379
▁بی	-11.2379
pri	-11.238
▁black	-11.238
ری	-11.2381
▁empresa	-11.2381
▁sei	-11.2382
ory	-11.2382
▁should	-11.2383
急	-11.2384
▁Come	-11.2384
այի	-11.2388
▁But	-11.2389
Do	-11.239
這	-11.2393
▁gibt	-11.2394
레	-11.2395
▁rot	-11.2395
spor	-11.2396
para	-11.2396
▁στον	-11.2397
pak	-11.2398
ਾਂ	-11.2398
▁després	-11.2399
▁しかし	-11.24
▁Syn	-11.2406
▁genera	-11.2407
reich	-11.2407
▁etxek	-11.2409
葉	-11.2409
▁Systema	-11.2409
▁már	-11.241
▁limit	-11.241
En	-11.2411
rica	-11.2412
▁которые	-11.2412
▁Nobiyembre	-11.2415
▁Queen	-11.2419
▁lett	-11.2419
▁Ir	-11.2421
õ	-11.2423
▁bekannt	-11.2423
▁Janeiro	-11.2423
یم	-11.2424
▁keine	-11.2425
▁XVII	-11.2426
aï	-11.2429
▁federal	-11.2429
lock	-11.2432
资	-11.2432
row	-11.2432
▁chỉ	-11.2432
团	-11.2432
gua	-11.2434
▁Nueva	-11.2435
▁Que	-11.2437
▁Head	-11.2438
▁Jersey	-11.2438
▁Islam	-11.2438
▁között	-11.2439
▁interior	-11.2439
▁წლის	-11.244
র্	-11.2441
▁tin	-11.2441
▁4-	-11.2442
々	-11.2444
▁stagione	-11.2445
یان	-11.2445
-21	-11.2446
یک	-11.2446
▁FIFA	-11.2446
iser	-11.2446
іль	-11.2447
▁bekend	-11.2447
ιο	-11.2448
رس	-11.2449
▁selbst	-11.2449
پ	-11.245
포	-11.245
оў	-11.2451
system	-11.2452
bul	-11.2452
▁việc	-11.2452
유	-11.2452
▁ही	-11.2453
▁Institut	-11.2454
▁закон	-11.2455
变	-11.2455
ич	-11.2459
権	-11.2463
ուն	-11.2463
티	-11.2465
▁further	-11.2465
nc	-11.2465
▁અ	-11.2466
▁Ι	-11.2467
▁Ly	-11.2468
▁tarafından	-11.2471
▁prop	-11.2473
hand	-11.2473
▁च	-11.2474
▁lid	-11.2474
▁এই	-11.2475
▁해	-11.2475
▁Bri	-11.2476
▁Bern	-11.2477
чен	-11.2478
▁zif	-11.2478
dina	-11.2479
地區	-11.2482
amihang	-11.2482
owo	-11.2483
える	-11.2483
물	-11.2483
uca	-11.2485
▁cùng	-11.2485
▁남	-11.2486
ச	-11.2486
OS	-11.2487
▁있는	-11.2488
▁фон	-11.2489
ది	-11.249
▁Board	-11.249
▁Ring	-11.2492
▁Ven	-11.2494
▁எ	-11.2495
lə	-11.2496
Ge	-11.2498
問題	-11.2501
▁района	-11.2501
成為	-11.2501
カー	-11.2502
▁등	-11.2506
▁Fer	-11.2506
▁character	-11.2508
apa	-11.2509
▁Guide	-11.2509
▁profesor	-11.251
▁Games	-11.251
▁While	-11.2511
кова	-11.2512
▁performance	-11.2513
вин	-11.2514
ฮ	-11.2516
isen	-11.2517
隆	-11.2517
▁nije	-11.2518
2013	-11.2518
▁På	-11.2518
lut	-11.2519
ión	-11.2522
һы	-11.2524
▁industrial	-11.2525
▁Bat	-11.2526
▁части	-11.2526
▁Carlo	-11.2526
▁representa	-11.2526
ശ	-11.2527
▁micro	-11.2528
Ա	-11.2528
消	-11.253
وز	-11.253
▁mini	-11.2531
竹	-11.2531
▁drama	-11.2531
▁questa	-11.2531
وب	-11.2531
▁leurs	-11.2532
ება	-11.2532
▁pří	-11.2533
升	-11.2534
▁יותר	-11.2534
▁25.	-11.2536
撃	-11.2537
羽	-11.2541
▁Susan	-11.2541
▁space	-11.2541
▁kra	-11.2544
istas	-11.2545
▁1997.	-11.2546
തി	-11.2546
3%	-11.2547
eller	-11.2547
▁Mill	-11.255
▁Afrika	-11.255
▁Toppen	-11.255
▁무	-11.2552
▁veel	-11.2553
мы	-11.2554
teur	-11.2555
2017	-11.2556
▁Pot	-11.2557
aran	-11.2557
▁erano	-11.256
ву	-11.256
▁området	-11.2562
▁gang	-11.2562
кар	-11.2562
▁wife	-11.2564
▁kre	-11.2564
▁Premio	-11.2564
务	-11.2566
熱	-11.2567
▁Гор	-11.2567
鉄道	-11.257
▁Durch	-11.257
skiego	-11.2571
ři	-11.2573
▁ка	-11.2573
ਜ	-11.2573
ular	-11.2576
ever	-11.2576
82	-11.2578
ロー	-11.2579
▁Hotel	-11.2582
纳	-11.2584
eerd	-11.2585
scher	-11.2585
4%	-11.2586
▁Jam	-11.259
Est	-11.2591
▁воз	-11.2592
▁актив	-11.2593
ু	-11.2593
ovat	-11.2594
▁wis	-11.2595
▁Wolf	-11.2596
▁cultura	-11.2596
idas	-11.2597
方面	-11.2597
gni	-11.2597
▁86	-11.2599
▁aveva	-11.26
ència	-11.2601
ние	-11.2601
egu	-11.2603
▁Franco	-11.2604
▁پی	-11.2605
▁extension	-11.2605
čí	-11.2605
kä	-11.2607
▁Федерацин	-11.2607
思	-11.261
▁Pacific	-11.2611
▁mange	-11.2612
▁тем	-11.2614
려	-11.2617
2016-11-12	-11.2617
▁genre	-11.2618
世紀	-11.2618
slag	-11.262
▁skulle	-11.2621
▁세	-11.2625
▁орган	-11.2626
望	-11.2627
▁sử	-11.2627
plo	-11.2632
件	-11.2632
сел	-11.2632
мин	-11.2633
▁125	-11.2633
rick	-11.2636
▁Ran	-11.2637
▁poco	-11.264
ibus	-11.264
▁نسمة	-11.2641
开始	-11.2641
ків	-11.2642
ант	-11.2642
▁فر	-11.2645
完成	-11.2646
sión	-11.265
vio	-11.2651
rob	-11.2653
adh	-11.2654
ості	-11.2656
皇	-11.2657
yd	-11.2658
▁maart	-11.2659
▁상	-11.2659
oidea	-11.2659
stone	-11.2659
▁پس	-11.2662
ница	-11.2663
▁کہ	-11.2663
▁1878	-11.2665
▁Anh	-11.2667
▁войны	-11.2667
gus	-11.2668
οί	-11.2668
▁প	-11.2669
▁ఒక	-11.2669
ผู้	-11.267
ரா	-11.267
▁Bridge	-11.267
ką	-11.2671
хо	-11.2671
ひ	-11.2672
▁kat	-11.2672
ோ	-11.2674
▁center	-11.2674
▁fem	-11.2676
▁села	-11.2676
架	-11.2681
ciu	-11.2681
▁населення	-11.2682
▁sydväst	-11.2682
▁Commission	-11.2683
▁Books	-11.2683
lek	-11.2684
ಲು	-11.2684
▁mostra	-11.2685
▁study	-11.2685
ún	-11.2685
ification	-11.2685
lain	-11.2686
▁Reference	-11.2686
昌	-11.2687
▁Christ	-11.2688
vest	-11.2688
град	-11.2688
▁Colombia	-11.2689
▁độ	-11.269
▁Ն	-11.2691
▁Nas	-11.2691
øy	-11.2692
tiv	-11.2692
vien	-11.2692
▁كل	-11.2692
▁That	-11.2694
ラン	-11.2694
▁Ay	-11.2696
cja	-11.2697
lü	-11.2697
▁Network	-11.2698
ssen	-11.2698
▁наук	-11.2699
▁videt	-11.27
ൂ	-11.2701
วิ	-11.2702
▁একটি	-11.2703
▁rok	-11.2703
▁(„	-11.2704
▁Ren	-11.2705
ds	-11.2707
▁Auch	-11.2707
▁több	-11.2707
spel	-11.2708
ници	-11.2708
қа	-11.2713
מן	-11.2716
▁hett	-11.2716
▁Centro	-11.2719
▁స	-11.272
紅	-11.2721
ဝ	-11.2722
mol	-11.2723
▁(2013)	-11.2723
bank	-11.2725
容	-11.2726
▁وچ	-11.2726
▁ಸಂ	-11.2727
▁author	-11.273
owany	-11.2731
▁double	-11.2731
▁dio	-11.2732
▁日本	-11.2732
▁31.	-11.2733
▁Allen	-11.2733
▁latin	-11.2734
▁Thi	-11.2735
▁devient	-11.2735
sco	-11.2736
ச்	-11.2736
▁File	-11.2739
cı	-11.2742
▁recorded	-11.2745
ே	-11.2745
▁change	-11.275
▁jedno	-11.2751
▁libre	-11.2752
▁?	-11.2753
▁1,2	-11.2753
iji	-11.2758
▁Minor	-11.2758
▁labon	-11.276
▁guitar	-11.2761
owi	-11.2762
費	-11.2762
▁הק	-11.2762
▁dessen	-11.2763
▁medio	-11.2763
alia	-11.2765
ир	-11.2768
rg	-11.2769
▁Video	-11.2772
Te	-11.2772
上海	-11.2774
▁ი	-11.2774
▁osa	-11.2774
▁formed	-11.2775
▁Internacional	-11.2776
▁Eesti	-11.2778
▁Matt	-11.2779
Per	-11.2782
auf	-11.2785
▁Heart	-11.2785
ʼ	-11.2786
석	-11.2786
▁Publishing	-11.2786
▁nich	-11.2786
▁Cla	-11.2787
gues	-11.2788
իկ	-11.2789
▁rue	-11.279
▁san	-11.279
▁certain	-11.2792
rian	-11.2792
シリーズ	-11.2792
曼	-11.2792
▁Khan	-11.2794
ಟ	-11.2795
▁novo	-11.2796
▁já	-11.2796
олог	-11.2796
▁(1993)	-11.2799
istä	-11.2801
рав	-11.2802
양	-11.2802
ҡ	-11.2802
mina	-11.2802
▁Tel	-11.2802
ppi	-11.2805
转	-11.2806
ijos	-11.2808
▁André	-11.2808
▁artist	-11.2809
乡	-11.2809
▁situada	-11.281
▁América	-11.2811
▁appeared	-11.2812
▁Fire	-11.2813
nza	-11.2816
گی	-11.2817
▁ს	-11.2818
За	-11.2818
nad	-11.282
▁verk	-11.282
▁bola	-11.282
▁Anton	-11.282
▁tə	-11.2824
▁vari	-11.2825
▁Gui	-11.2826
▁Ty	-11.2826
стра	-11.2826
▁thế	-11.2827
avo	-11.283
▁arti	-11.2831
▁۱۹	-11.2832
рен	-11.2834
▁син	-11.2835
ਬ	-11.2838
▁આવેલા	-11.284
cé	-11.2841
▁salah	-11.2842
▁1861	-11.2842
▁Климат	-11.2842
wyd	-11.2843
▁fil	-11.2845
-07	-11.2846
ಶ	-11.285
击	-11.285
내	-11.2851
▁còn	-11.2851
▁Joan	-11.2851
▁הנ	-11.2851
一般	-11.2852
hod	-11.2855
▁mondiale	-11.2856
tif	-11.2857
▁symbol	-11.286
nam	-11.286
▁бас	-11.286
၏	-11.286
▁día	-11.2861
▁Quốc	-11.2861
▁však	-11.2861
сь	-11.2862
аль	-11.2864
▁سطح	-11.2864
ғ	-11.2865
▁Kre	-11.2865
▁seperti	-11.2867
黃	-11.2867
雪	-11.2868
▁omkring	-11.2868
▁Hin	-11.2868
{	-11.287
liv	-11.2872
gn	-11.2873
注	-11.2874
▁oko	-11.2875
▁foar	-11.2876
▁passa	-11.2877
qi	-11.2878
▁outros	-11.2878
▁Consultado	-11.2878
ーン	-11.2882
▁dentro	-11.2882
▁1994.	-11.2885
▁הס	-11.2886
▁Samuel	-11.2886
▁kde	-11.2887
pes	-11.2888
중	-11.2888
ุ	-11.289
zik	-11.289
spe	-11.2891
▁Bert	-11.2891
န်	-11.2895
нос	-11.2895
ံ	-11.2896
▁Bach	-11.2896
آ	-11.2897
列車	-11.2898
tung	-11.2899
ύ	-11.2901
▁zituen	-11.2902
▁minor	-11.2902
▁papel	-11.2902
▁Ρ	-11.2905
мар	-11.2905
▁перед	-11.2905
▁భూమి	-11.2905
议	-11.2906
團	-11.2908
ური	-11.2908
▁نا	-11.2908
卷	-11.2909
▁Seine	-11.291
▁сред	-11.291
後に	-11.2911
음	-11.2912
간	-11.2912
▁уч	-11.2913
tól	-11.2913
ौ	-11.2914
ਰੀ	-11.2915
雅	-11.2916
▁Development	-11.2916
▁common	-11.2916
ško	-11.2917
sem	-11.2917
ಗಳಲ್ಲಿ	-11.2918
宝	-11.2918
▁β	-11.2918
▁territorio	-11.2918
▁81	-11.2919
营	-11.2919
▁developed	-11.2919
"।	-11.292
▁ski	-11.2921
dus	-11.2921
iny	-11.2924
▁84	-11.2925
▁ciutat	-11.2926
▁Gau	-11.2927
▁ras	-11.2927
沢	-11.293
être	-11.293
▁Douglas	-11.293
▁округу	-11.293
lap	-11.293
โ	-11.293
ции	-11.293
ॉ	-11.293
ña	-11.2931
害	-11.2932
▁Miller	-11.2932
▁official	-11.2933
▁eng	-11.2934
)।	-11.2935
ston	-11.2935
▁Hong	-11.2936
ży	-11.2936
▁بیر	-11.2937
▁μια	-11.2937
cida	-11.2938
▁1871	-11.2939
ení	-11.2939
AL	-11.294
▁Bundes	-11.294
▁Staats	-11.2942
▁Wi	-11.2943
▁Ek	-11.2945
▁education	-11.2946
נים	-11.2946
name	-11.2946
től	-11.2953
kes	-11.2954
▁Stan	-11.2954
fal	-11.2955
▁Ernst	-11.2955
▁Kil	-11.2956
gata	-11.2956
▁nhân	-11.2958
nsa	-11.2958
Gu	-11.2958
▁altre	-11.2958
рес	-11.2958
▁1887	-11.2958
條	-11.2959
▁Nan	-11.2959
▁عبد	-11.2963
▁Rus	-11.2964
್ಯ	-11.2964
nier	-11.2965
▁Shin	-11.2967
ებს	-11.2968
完	-11.2969
Frantsesez	-11.2971
▁بتاريخ	-11.2971
ує	-11.2972
εν	-11.2972
ಕ್ಕೆ	-11.2973
aris	-11.2974
▁բ	-11.2974
▁Library	-11.2974
▁través	-11.2975
▁govern	-11.2975
اف	-11.2976
▁Dé	-11.2976
▁79	-11.2977
্য	-11.2979
▁Ré	-11.298
▁military	-11.298
zzo	-11.2981
▁available	-11.2982
▁Kle	-11.2982
ért	-11.2982
▁Nobel	-11.2983
▁وقد	-11.2984
jung	-11.2985
▁ए	-11.2985
▁před	-11.2986
డ్	-11.2986
成为	-11.2986
▁Summer	-11.2989
▁اے	-11.2989
▁הע	-11.299
▁opened	-11.2991
敗	-11.2991
▁People	-11.2992
يس	-11.2993
署	-11.2995
▁ग	-11.2996
▁pertama	-11.2997
áz	-11.2997
тра	-11.2998
奧	-11.2999
▁how	-11.2999
ਹ	-11.3
taan	-11.3001
ht	-11.3002
ਿਆ	-11.3003
▁Mga	-11.3003
тив	-11.3003
ама	-11.3004
▁idea	-11.3004
ица	-11.3005
▁liga	-11.3005
นั้น	-11.3006
क्ष	-11.3008
▁sydost	-11.3009
▁kaominina	-11.3009
▁ball	-11.3012
▁город	-11.3013
作曲	-11.3013
ця	-11.3014
▁1882	-11.3014
ію	-11.3015
▁Nar	-11.3016
哥	-11.3016
ира	-11.3019
▁Last	-11.3019
▁Corporation	-11.302
▁98	-11.302
▁мая	-11.302
▁период	-11.3021
▁Abril	-11.3021
▁Fr	-11.3021
▁daha	-11.3022
prov	-11.3023
▁Way	-11.3023
ασ	-11.3023
▁ನ	-11.3024
▁қа	-11.3024
▁tor	-11.3025
ชื่อ	-11.3026
2015	-11.3026
ned	-11.3026
▁الا	-11.3026
▁Wald	-11.3027
▁Report	-11.3027
ட	-11.3028
▁maa	-11.3029
arra	-11.303
測	-11.303
マー	-11.3033
▁Wind	-11.3033
▁título	-11.3034
▁다	-11.3034
▁denne	-11.3037
月に	-11.3037
pass	-11.3038
▁мо	-11.3038
ovo	-11.3038
▁ни	-11.3039
▁producer	-11.3039
▁Moon	-11.304
▁Russian	-11.3042
mise	-11.3044
のみ	-11.3045
▁ότι	-11.3045
▁તે	-11.3046
双	-11.3051
▁ह	-11.3052
▁office	-11.3053
ља	-11.3053
bahn	-11.3054
bou	-11.3054
▁ст	-11.3054
異	-11.3054
▁IX	-11.3056
▁Carr	-11.3056
ington	-11.3057
▁lat	-11.3057
▁থেকে	-11.3058
其中	-11.3058
եղ	-11.3058
tant	-11.3059
▁Sydney	-11.3059
합	-11.3059
▁160	-11.306
mä	-11.306
明治	-11.3061
elor	-11.3061
issä	-11.3062
권	-11.3063
▁past	-11.3064
▁وفي	-11.3065
▁stage	-11.3066
▁foto	-11.3066
▁organiz	-11.3067
▁direction	-11.3067
ள	-11.3068
ტი	-11.3068
▁pilot	-11.3069
▁dakbayan	-11.3069
▁Sto	-11.307
▁gor	-11.3071
dən	-11.3071
AT	-11.3071
rre	-11.3071
դ	-11.3072
▁persona	-11.3072
च्या	-11.3074
做	-11.3075
alle	-11.3076
▁stop	-11.3076
▁1996.	-11.3076
▁הו	-11.3077
코	-11.3077
▁համար	-11.3078
skiej	-11.3078
▁למ	-11.3079
▁ak	-11.3079
ból	-11.3082
▁Би	-11.3083
▁Shu	-11.3083
тов	-11.3084
记	-11.3086
сем	-11.3087
år	-11.3088
Un	-11.309
stel	-11.3093
stav	-11.3094
▁Vil	-11.3094
mini	-11.3096
▁უ	-11.3096
급	-11.3096
▁num	-11.3096
▁francés	-11.3097
▁ëd	-11.3097
trop	-11.3097
▁neue	-11.3097
િ	-11.3098
gger	-11.3098
關	-11.3098
▁خ	-11.3099
単	-11.31
▁Poli	-11.31
▁она	-11.3101
▁этого	-11.3101
awa	-11.3102
oka	-11.3103
▁مو	-11.3104
في	-11.3104
▁Yn	-11.3105
▁pare	-11.3105
▁Josef	-11.3106
uter	-11.3106
爆	-11.3107
▁Brand	-11.3107
ník	-11.3108
rom	-11.3109
▁só	-11.3111
ossa	-11.3111
▁exemple	-11.3112
状	-11.3113
▁hall	-11.3114
▁kraj	-11.3114
▁Finland	-11.3115
enburg	-11.3115
ള	-11.3115
自己	-11.3116
வி	-11.3117
汉	-11.3117
אר	-11.3117
ender	-11.3119
▁Fund	-11.3119
aal	-11.3121
وت	-11.3121
mai	-11.3123
▁команд	-11.3124
▁weitere	-11.3125
▁تے	-11.3126
৬	-11.3127
▁success	-11.3128
强	-11.3128
ился	-11.3128
▁sv	-11.3129
▁never	-11.3129
▁maior	-11.3131
▁huyện	-11.3131
բ	-11.3132
▁eus	-11.3132
▁enpresak	-11.3134
技	-11.3134
▁모	-11.3135
▁Soviet	-11.3135
テレビ	-11.3135
▁стар	-11.3136
ının	-11.3136
▁gruppo	-11.3137
tten	-11.3138
▁FishBase	-11.3138
лася	-11.3139
▁Foundation	-11.3139
▁estaba	-11.3139
▁Gli	-11.3139
▁sama	-11.314
休	-11.3142
ован	-11.3142
▁hơn	-11.3142
▁تعداد	-11.3142
▁Lietuvos	-11.3143
▁Cam	-11.3145
▁current	-11.3147
ვა	-11.3148
▁lost	-11.3149
▁Φ	-11.3149
дж	-11.3149
ones	-11.3151
۸	-11.3153
▁пол	-11.3154
▁regionen	-11.3155
▁Бар	-11.3156
参加	-11.3157
▁Stockholm	-11.3157
▁tuvo	-11.3159
ഗ	-11.316
mica	-11.3161
8%	-11.3161
ถึง	-11.3161
ew	-11.3161
сер	-11.3162
▁εκ	-11.3164
▁Kingdom	-11.3164
2006	-11.3165
دي	-11.3165
ivi	-11.3167
emi	-11.3167
▁kui	-11.3167
sburg	-11.3167
▁ú	-11.3168
ээ	-11.3168
▁വ	-11.3171
▁ар	-11.3172
间	-11.3173
裝	-11.3174
▁kaayo	-11.3174
▁ഒരു	-11.3174
▁khu	-11.3175
ರೆ	-11.3176
▁Τ	-11.3176
▁lig	-11.3177
▁hr	-11.3178
▁working	-11.3179
▁они	-11.3179
nne	-11.3179
ติ	-11.3181
製作	-11.3181
▁Bang	-11.3182
ங்க	-11.3183
▁Χ	-11.3184
mist	-11.3184
▁Entertainment	-11.3184
▁areas	-11.3185
▁(1992)	-11.3185
▁Norte	-11.3185
ських	-11.3186
▁fet	-11.3186
▁editor	-11.319
▁Down	-11.319
▁valor	-11.3191
▁communes	-11.3192
皮	-11.3195
ää	-11.3196
▁Small	-11.3196
▁Ново	-11.3197
פי	-11.3197
▁see	-11.3197
▁1881	-11.3199
യിൽ	-11.3199
ထ	-11.3199
▁Гу	-11.32
▁dende	-11.32
▁Fan	-11.3201
乐	-11.3202
ська	-11.3204
▁Ok	-11.3206
▁hos	-11.3209
ijo	-11.3209
▁himself	-11.3209
▁dette	-11.3211
ct	-11.3211
▁appointed	-11.3212
姆	-11.3213
▁Վերցված	-11.3213
▁đồng	-11.3213
ρ	-11.3213
▁embargo	-11.3216
▁барамера	-11.3216
▁alta	-11.3216
ienne	-11.3218
▁making	-11.3219
▁Government	-11.322
Su	-11.3221
ids	-11.3221
אן	-11.3221
▁Süd	-11.3223
▁н	-11.3223
▁εν	-11.3229
რ	-11.323
它	-11.3233
▁1864	-11.3234
700	-11.3237
▁película	-11.3237
▁180	-11.3238
▁Российской	-11.3238
▁cri	-11.3239
buch	-11.3239
▁Sho	-11.324
▁politik	-11.3241
時代	-11.3242
▁Nick	-11.3242
▁Papa	-11.3243
▁sehr	-11.3243
adores	-11.3244
▁although	-11.3245
ிய	-11.3246
శ	-11.3247
іс	-11.3249
▁teams	-11.3249
▁furono	-11.325
▁commercial	-11.325
▁jednak	-11.325
chten	-11.3253
▁1990.	-11.3253
▁vert	-11.3254
tsu	-11.3254
▁protest	-11.3254
ռուս	-11.3255
ούς	-11.3255
▁الص	-11.3256
▁მე	-11.3257
▁Polski	-11.3258
延	-11.3258
ぶ	-11.3259
иот	-11.326
迪	-11.3262
薩	-11.3262
ord	-11.3264
▁Enrique	-11.3264
▁white	-11.3265
▁även	-11.3266
▁ditu	-11.3266
ရေး	-11.3268
▁Gy	-11.3268
дов	-11.327
▁mother	-11.3272
▁rem	-11.3273
▁континенталан	-11.3273
punkt	-11.3274
▁bili	-11.3274
▁Romania	-11.3275
통	-11.3276
Bu	-11.3276
-02	-11.3278
▁સ	-11.3283
▁Hamburg	-11.3284
▁Studies	-11.3285
▁وم	-11.3285
மி	-11.3286
клад	-11.3287
▁tej	-11.3287
▁damit	-11.3288
▁coach	-11.3292
▁få	-11.3292
gut	-11.3293
kup	-11.3293
×	-11.3293
▁fal	-11.3294
rup	-11.3294
▁المتحدة	-11.3298
▁fünf	-11.3298
▁করেন	-11.3299
▁global	-11.3301
祭	-11.3302
uru	-11.3302
шт	-11.3303
▁تحت	-11.3303
科学	-11.3305
人の	-11.3305
▁(1)	-11.3308
▁ialah	-11.3309
ヴィ	-11.331
增	-11.3312
▁cam	-11.3312
▁independent	-11.3312
ización	-11.3313
▁1879	-11.3314
có	-11.3314
2018	-11.3315
лог	-11.3316
جر	-11.3316
न्	-11.3317
勢	-11.3318
üh	-11.3318
▁thứ	-11.332
▁Pir	-11.332
▁Japanese	-11.3321
▁Sohn	-11.3321
▁той	-11.3322
ավոր	-11.3322
▁sup	-11.3323
kem	-11.3323
▁século	-11.3327
iidae	-11.3329
票	-11.333
▁bilo	-11.3331
▁online	-11.3334
inu	-11.3335
ட்	-11.3335
▁ক	-11.3335
▁Kel	-11.3337
▁située	-11.3338
▁stav	-11.3339
sus	-11.334
試	-11.334
nor	-11.3341
dere	-11.3342
▁אשר	-11.3343
We	-11.3344
▁troba	-11.3345
▁Hoa	-11.3347
press	-11.3348
èt	-11.3348
▁Stefan	-11.335
▁Story	-11.3351
▁Ireland	-11.3351
还	-11.3353
FC	-11.3353
▁bli	-11.3354
spec	-11.3355
▁naselju	-11.3356
▁83	-11.3357
DS	-11.3357
▁gy	-11.3357
анд	-11.3358
кин	-11.3361
模	-11.3363
▁Review	-11.3364
▁Vir	-11.3366
▁Four	-11.3366
▁others	-11.3368
rada	-11.3368
iin	-11.3368
9%	-11.3369
▁Tod	-11.3371
▁leader	-11.3372
ゲーム	-11.3373
麻	-11.3373
▁statt	-11.3377
ать	-11.3378
▁הייתה	-11.3381
▁মারি	-11.3382
ery	-11.3385
事業	-11.3386
imento	-11.3386
iens	-11.3386
▁1850	-11.3388
DA	-11.339
▁ਮ	-11.3391
▁الله	-11.3394
▁selon	-11.3394
▁stanovništva	-11.3395
ison	-11.3398
▁Junior	-11.3399
гон	-11.3399
duc	-11.3399
▁Chor	-11.3401
▁Zi	-11.3402
觀	-11.3402
▁מי	-11.3402
▁פי	-11.3403
vě	-11.3405
eira	-11.3405
рак	-11.3406
振	-11.3406
▁йовха	-11.341
ண	-11.3411
奈	-11.3413
Ж	-11.3416
ём	-11.3417
▁xuất	-11.3417
▁alto	-11.3419
או	-11.342
MA	-11.342
所有	-11.3421
人民	-11.3422
▁arasında	-11.3425
lama	-11.3425
alta	-11.3426
৯	-11.3426
擊	-11.3427
▁확인함	-11.3428
▁cr	-11.3428
▁августа	-11.343
極	-11.343
اط	-11.3431
▁Later	-11.3431
▁disse	-11.3432
여	-11.3432
▁Order	-11.3432
系統	-11.3432
TS	-11.3434
ल्	-11.3435
▁eigen	-11.3435
iers	-11.3436
▁cum	-11.3436
ക്	-11.3436
▁6,	-11.3437
▁الر	-11.3437
▁aver	-11.3438
忠	-11.3439
▁pis	-11.3439
▁بخش	-11.3441
ด้วย	-11.3441
▁police	-11.3443
rata	-11.3444
lara	-11.3445
히	-11.3445
▁Punta	-11.3448
▁celui	-11.3448
▁ente	-11.3448
esse	-11.3448
▁Dopo	-11.3448
▁Bil	-11.3448
▁Mexican	-11.3449
wel	-11.345
▁Dat	-11.345
بار	-11.3451
▁κατά	-11.3451
環	-11.3457
广	-11.3458
終	-11.3459
шш	-11.3463
▁otro	-11.3466
ussa	-11.3466
▁personas	-11.3466
형	-11.3468
▁Brazil	-11.3468
▁pueden	-11.3468
What	-11.3471
рет	-11.3472
ière	-11.3472
▁unit	-11.3472
ಟ್	-11.3473
▁mala	-11.3473
kommen	-11.3475
▁cinco	-11.3475
ött	-11.3476
类	-11.3477
▁qo	-11.3478
▁1810	-11.3479
▁również	-11.3479
▁internacional	-11.3479
▁bre	-11.3479
▁δεν	-11.348
"),	-11.3482
▁ثم	-11.3483
▁Kinder	-11.3486
▁ز	-11.3487
шу	-11.3488
▁zone	-11.3491
城市	-11.3492
▁patedik	-11.3493
American	-11.3494
▁Peru	-11.3494
▁ישראל	-11.3494
লে	-11.3494
bile	-11.3495
જ	-11.3496
泉	-11.3497
سی	-11.35
樂	-11.35
▁hen	-11.35
יי	-11.3501
ણ	-11.3502
▁Ai	-11.3502
ദ	-11.3502
▁Diego	-11.3502
▁estat	-11.3503
▁departament	-11.3504
▁89	-11.3505
▁Cast	-11.3505
▁มี	-11.3506
कर	-11.3506
ред	-11.3506
לי	-11.3506
▁genom	-11.3507
雲	-11.3508
▁микрохаамаш	-11.3508
ismus	-11.3508
▁living	-11.3511
慶	-11.3511
▁Lin	-11.3513
▁май	-11.3514
▁rund	-11.3515
私	-11.3515
▁Ри	-11.3515
ops	-11.3516
▁Colorado	-11.3516
▁Sri	-11.3517
τά	-11.3517
ราช	-11.3518
nju	-11.3518
방	-11.3519
▁Hollywood	-11.3519
▁prema	-11.352
▁bru	-11.352
▁Fil	-11.3521
rb	-11.3521
▁hospital	-11.3521
▁Gordon	-11.3522
▁tien	-11.3523
▁pendant	-11.3523
yle	-11.3524
▁Kat	-11.3525
▁ren	-11.3526
안	-11.3527
両	-11.3527
▁rival	-11.3528
▁course	-11.3528
▁Fl	-11.353
▁young	-11.353
▁cause	-11.353
생	-11.3531
▁Mario	-11.3532
▁taken	-11.3532
ುವ	-11.3533
▁ní	-11.3533
▁filme	-11.3534
▁Just	-11.3536
▁والم	-11.3538
▁või	-11.3541
带	-11.3541
▁Mé	-11.3541
ँ	-11.3541
▁Ş	-11.3543
▁partido	-11.3544
cchi	-11.3545
▁nebula	-11.3545
▁스	-11.3547
État	-11.3548
टी	-11.3548
▁متحدہ	-11.3548
яр	-11.355
▁Под	-11.3551
obi	-11.3552
樹	-11.3552
▁diverse	-11.3553
▁tako	-11.3554
atie	-11.3556
вид	-11.3556
prav	-11.3556
▁этом	-11.3561
▁1995.	-11.3561
▁può	-11.3562
步	-11.3563
▁elected	-11.3564
▁1500	-11.3566
▁return	-11.3569
▁away	-11.3571
▁tutti	-11.3572
▁ante	-11.3572
▁सा	-11.3572
▁prec	-11.3572
帶	-11.3574
นิ	-11.3576
autres	-11.3577
▁định	-11.3577
▁Johan	-11.3579
▁вер	-11.358
▁ז	-11.358
▁Theatre	-11.3582
▁Sports	-11.3583
許	-11.3583
▁planta	-11.3583
▁otras	-11.3584
▁ਕ	-11.3584
зна	-11.3584
▁compte	-11.3584
▁Dra	-11.3588
陸	-11.3589
ének	-11.3589
▁Республики	-11.359
▁lista	-11.359
icos	-11.359
וני	-11.3591
▁две	-11.3591
▁nä	-11.3594
ának	-11.3594
bru	-11.3596
уз	-11.3597
▁реки	-11.3599
că	-11.36
▁93	-11.3601
▁ima	-11.3602
▁αν	-11.3602
▁1883	-11.3603
產	-11.3606
оп	-11.3607
▁Pic	-11.3608
Ц	-11.3608
▁Who	-11.3609
▁Navy	-11.361
аз	-11.3612
rot	-11.3613
▁tätbefolkat	-11.3614
▁خلال	-11.3615
▁league	-11.3615
▁regi	-11.3618
▁neo	-11.3618
աս	-11.3619
▁kanssa	-11.3619
収	-11.3619
▁bé	-11.3621
▁ഇ	-11.3621
池	-11.3622
層	-11.3622
▁Groß	-11.3622
▁kontinente	-11.3623
席	-11.3623
▁playing	-11.3626
ంగా	-11.3626
ਡ	-11.3627
▁дека	-11.3628
▁turn	-11.363
年度	-11.3631
▁stil	-11.3631
stri	-11.3632
▁გა	-11.3633
▁tim	-11.3634
οι	-11.3634
igu	-11.3635
▁شهرستان	-11.3637
▁good	-11.3637
horn	-11.3637
ظ	-11.3637
▁pris	-11.3638
▁road	-11.3638
▁firm	-11.3638
▁mang	-11.3639
▁내	-11.364
▁segle	-11.364
▁Massachusetts	-11.3641
ald	-11.3642
▁1876	-11.3642
nings	-11.3643
领	-11.3644
▁Γ	-11.3645
ạ	-11.3645
▁especie	-11.3647
inte	-11.365
▁فیلم	-11.365
ET	-11.3651
救	-11.3651
▁össze	-11.3651
▁nama	-11.3651
λι	-11.3652
▁нај	-11.3653
通常	-11.3653
▁Comp	-11.3654
arm	-11.3654
阳	-11.3655
▁cuatro	-11.3655
▁PS	-11.3656
ον	-11.3658
법	-11.3659
▁host	-11.366
▁magazine	-11.366
▁Ul	-11.366
▁yw	-11.3661
▁قد	-11.3661
▁close	-11.3662
скую	-11.3663
ками	-11.3663
tou	-11.3664
▁Ռ	-11.3667
义	-11.3669
lingen	-11.367
gem	-11.3672
舞	-11.3673
▁bahwa	-11.3674
▁flere	-11.3677
▁Dipterorum	-11.3677
▁বারো	-11.3677
▁Was	-11.3678
▁Од	-11.3678
▁съ	-11.3678
lou	-11.3678
▁Stor	-11.3679
pra	-11.368
▁Austria	-11.3681
→	-11.3682
sak	-11.3683
▁films	-11.3687
test	-11.3688
▁Volks	-11.3689
І	-11.369
▁Ин	-11.369
cü	-11.3692
▁2011-01-06	-11.3692
▁जाता	-11.3693
gat	-11.3694
▁great	-11.3696
pé	-11.3696
custodian	-11.3696
зы	-11.3696
٫	-11.37
紀	-11.37
▁molt	-11.3701
▁Fest	-11.3701
ço	-11.3703
▁delstaten	-11.3703
▁terme	-11.3707
▁пов	-11.3708
▁fit	-11.3708
▁cargo	-11.3709
技術	-11.3712
▁lượng	-11.3713
▁viên	-11.3716
শ	-11.3716
▁carrera	-11.3716
ლო	-11.3716
始	-11.3717
кер	-11.3718
征	-11.3718
ամ	-11.3718
大会	-11.372
र्	-11.3721
▁他	-11.3722
▁本	-11.3722
▁ਬ	-11.3725
tuak	-11.3727
▁policy	-11.373
SA	-11.3732
Ho	-11.3732
▁tren	-11.3734
거	-11.3734
mut	-11.3735
аны	-11.3736
▁Mart	-11.3737
▁across	-11.3737
▁costa	-11.3738
aro	-11.3739
тың	-11.374
▁Theater	-11.374
▁produce	-11.3741
▁Era	-11.3742
צה	-11.3742
▁Dead	-11.3744
bed	-11.3744
sini	-11.3744
▁Pala	-11.3746
せ	-11.3747
spiel	-11.3749
▁Area	-11.3749
奖	-11.3752
▁তিনি	-11.3752
▁Sverige	-11.3753
eno	-11.3753
րդ	-11.3755
▁fils	-11.3755
ίες	-11.3757
ню	-11.3757
▁बा	-11.3757
ელი	-11.3757
pia	-11.3757
AS	-11.3759
▁Michigan	-11.3759
▁रूप	-11.376
▁(2008).	-11.3764
▁Online	-11.3764
▁করা	-11.3765
▁Beach	-11.3766
順	-11.3767
朗	-11.3767
▁ön	-11.3768
▁വി	-11.377
nta	-11.377
▁kä	-11.377
ริ	-11.3771
▁seven	-11.3772
ெ	-11.3775
ստ	-11.3776
ത്തിൽ	-11.3776
▁फ	-11.3777
바	-11.3777
▁1863	-11.3777
▁vest	-11.3778
追	-11.3779
να	-11.3781
北京	-11.3781
ך	-11.3783
▁section	-11.3783
zza	-11.3784
بدور	-11.3785
ني	-11.3786
▁range	-11.3787
均	-11.3788
inga	-11.3791
ára	-11.3792
▁kes	-11.3792
▁Dy	-11.3793
▁svoje	-11.3794
▁got	-11.3794
▁signed	-11.3794
▁Kai	-11.3797
▁رو	-11.3797
▁Field	-11.38
ギ	-11.3802
mil	-11.3802
ouest	-11.3803
BA	-11.3803
▁cao	-11.3803
적인	-11.3805
▁1866	-11.3805
▁ഈ	-11.3805
▁Fair	-11.3808
sty	-11.3808
▁Guy	-11.381
▁toimi	-11.3811
▁dol	-11.3811
ए	-11.3813
▁била	-11.3814
▁once	-11.3814
dz	-11.3815
见	-11.3816
▁Howard	-11.3817
속	-11.3818
লা	-11.3818
லி	-11.3819
nner	-11.3821
▁sinh	-11.3822
▁bylo	-11.3822
▁anhianhi	-11.3823
stup	-11.3824
▁pou	-11.3825
▁2011-04-26	-11.3827
▁περι	-11.3827
リン	-11.3829
001	-11.3829
▁원	-11.383
鉄	-11.3833
ഹ	-11.3834
iente	-11.3835
▁عنوان	-11.3835
▁quella	-11.3835
ี	-11.3836
女子	-11.3838
▁Campeonato	-11.3842
է	-11.3844
▁1877	-11.3844
▁Hospital	-11.3845
ndi	-11.3846
oku	-11.3852
▁Horn	-11.3852
▁ச	-11.3852
Car	-11.3854
ナー	-11.3854
▁Northern	-11.3855
7%	-11.3857
▁לו	-11.3857
▁orbit	-11.3858
▁č	-11.386
gé	-11.386
syn	-11.386
▁Desa	-11.386
иш	-11.3861
▁pap	-11.3862
ผ	-11.3863
tien	-11.3863
चे	-11.3864
▁կազմում	-11.3865
루	-11.3865
cut	-11.3866
▁בת	-11.3866
۰	-11.3868
tio	-11.3872
▁Britannica	-11.3872
ലി	-11.3873
யின்	-11.3874
▁Sara	-11.3875
▁voi	-11.3876
ვ	-11.3876
利用	-11.3878
进行	-11.388
▁((	-11.388
▁ó	-11.3881
▁ami	-11.3881
▁secara	-11.3883
еш	-11.3884
▁1875	-11.3885
ím	-11.3885
வர்	-11.3885
хан	-11.3885
eus	-11.3886
▁hade	-11.3888
Am	-11.3889
▁1873	-11.389
▁Ӏа	-11.3891
離	-11.3892
▁адам	-11.3894
▁gjennom	-11.3895
獲得	-11.3897
▁Volume	-11.3897
দের	-11.3899
IP	-11.39
▁begann	-11.3901
ట్	-11.3901
▁fest	-11.3901
vie	-11.3901
rid	-11.3905
lerin	-11.3907
بالإنجليزية	-11.3908
नि	-11.3912
▁87	-11.3912
的に	-11.3912
თ	-11.3914
▁ద్వారా	-11.3914
ative	-11.3914
▁մարդ	-11.3915
秋	-11.3916
ování	-11.3917
рам	-11.3917
▁così	-11.3918
Da	-11.3919
▁Lawrence	-11.392
▁numero	-11.392
項	-11.3922
veg	-11.3923
▁Asteroid	-11.3923
▁Pil	-11.3924
▁deutschen	-11.3924
▁1992.	-11.3926
▁provide	-11.3927
▁blir	-11.3928
▁92	-11.3929
▁кој	-11.393
▁negli	-11.393
全国	-11.3931
▁jälkeen	-11.3933
▁Middle	-11.3934
him	-11.3934
▁quali	-11.3936
camp	-11.3938
魚	-11.3941
bild	-11.3941
▁Tang	-11.3941
▁regione	-11.3942
àn	-11.3944
vä	-11.3946
▁(2015)	-11.3947
ంలో	-11.3948
อย่าง	-11.3948
▁ide	-11.3948
▁census	-11.3948
Saint	-11.3948
▁befindet	-11.3948
คน	-11.3949
enta	-11.3949
▁Том	-11.395
cina	-11.395
▁male	-11.3951
lice	-11.3953
ాల	-11.3954
▁principalmente	-11.3956
▁chiến	-11.3956
▁ring	-11.3957
▁favor	-11.3958
France	-11.3959
シュ	-11.396
▁तथा	-11.396
লি	-11.396
ಡಿ	-11.3962
▁prin	-11.3963
▁బ	-11.3963
视	-11.3963
ání	-11.3964
front	-11.3964
pati	-11.3967
▁Pla	-11.3968
्	-11.3968
▁gave	-11.3971
▁Dream	-11.3972
−	-11.3972
▁rit	-11.3972
▁سي	-11.3973
▁diversos	-11.3974
מים	-11.3974
干	-11.3975
gri	-11.3976
نت	-11.3977
▁trova	-11.3978
▁Rec	-11.3979
▁энциклопедия	-11.3979
▁Québec	-11.3981
▁हे	-11.3981
▁7,	-11.3981
となり	-11.3981
ене	-11.3984
▁dois	-11.3984
rant	-11.3985
abil	-11.3985
▁اطلع	-11.3987
導	-11.3989
▁мал	-11.3989
2004	-11.399
において	-11.3991
▁XI	-11.3992
▁불	-11.3992
▁(1999).	-11.3993
▁Bukid	-11.3995
▁5-	-11.3995
ното	-11.3995
▁continua	-11.3995
組織	-11.3998
poli	-11.3999
できる	-11.3999
origine	-11.3999
rung	-11.4
▁Girl	-11.4002
elijke	-11.4002
▁Stanley	-11.4003
▁tego	-11.4003
적으로	-11.4003
eket	-11.4005
▁pun	-11.4007
ตาม	-11.4007
ným	-11.4008
▁minutes	-11.4009
▁score	-11.4009
▁Οι	-11.401
चा	-11.4011
TA	-11.4011
▁market	-11.4013
▁hotel	-11.4015
▁Din	-11.4016
▁ihren	-11.4017
待	-11.4017
▁Napoleon	-11.4017
▁majd	-11.4021
營	-11.4021
▁viz	-11.4021
〈	-11.4022
anje	-11.4022
▁sense	-11.4024
ulo	-11.4025
▁AS	-11.4025
▁square	-11.4025
тур	-11.4027
sey	-11.4028
▁број	-11.4029
工程	-11.4029
eza	-11.403
▁Like	-11.4031
▁immer	-11.4032
lib	-11.4032
вся	-11.4032
stva	-11.4033
▁urban	-11.4034
acji	-11.4034
lid	-11.4034
▁force	-11.4035
nega	-11.4035
ыми	-11.4035
мон	-11.4037
gir	-11.4038
play	-11.404
▁fly	-11.4041
ssi	-11.4045
▁roi	-11.4045
კ	-11.4046
▁če	-11.4047
▁یکی	-11.4047
▁Magnoliopsida	-11.4048
▁osob	-11.4049
▁aquest	-11.4049
▁fact	-11.4051
▁gel	-11.4054
For	-11.4055
▁maja	-11.4055
ských	-11.4056
られた	-11.4056
ยา	-11.4057
남	-11.4057
▁18,	-11.4059
▁self	-11.4061
余	-11.4064
pend	-11.4064
ție	-11.4064
dorf	-11.4065
▁década	-11.4065
▁conserva	-11.4067
▁1867	-11.4068
▁How	-11.4068
kre	-11.4068
▁இந்த	-11.407
Ja	-11.407
зо	-11.407
▁Ski	-11.4071
▁Anthony	-11.4071
lık	-11.4073
▁ম	-11.4073
drag	-11.4074
cke	-11.4074
牛	-11.4075
卫	-11.4075
▁hình	-11.4075
▁1993.	-11.4077
९	-11.4078
▁Empire	-11.4079
»،	-11.408
▁love	-11.4081
▁Now	-11.4082
▁obras	-11.4083
há	-11.4087
Th	-11.4087
ables	-11.4089
tun	-11.4089
სა	-11.4089
से	-11.409
▁거	-11.4091
chan	-11.4092
▁Us	-11.4092
щ	-11.4092
ση	-11.4093
▁Μπ	-11.4094
残	-11.4095
▁Google	-11.4095
৭	-11.4098
ieron	-11.4098
▁Դ	-11.4099
▁1,3	-11.41
현	-11.4101
旗	-11.4102
▁оп	-11.4102
▁specie	-11.4102
ְ	-11.4102
▁csak	-11.4103
▁суд	-11.4103
ots	-11.4104
▁Cole	-11.4104
▁moderne	-11.4105
`	-11.4105
▁performed	-11.4106
▁enw	-11.4108
ční	-11.4108
ču	-11.4108
▁vùng	-11.4108
▁Bass	-11.4109
ელ	-11.4112
階	-11.4114
▁tegen	-11.4114
lec	-11.4115
▁Valle	-11.4117
đ	-11.4118
▁nap	-11.4118
▁seme	-11.412
water	-11.412
итель	-11.4121
▁kaumahan	-11.4122
ierten	-11.4122
λε	-11.4123
▁zunächst	-11.4126
ök	-11.4126
▁Vietnam	-11.4127
▁act	-11.413
▁години	-11.4131
▁mark	-11.4132
lyn	-11.4133
▁joylashgan	-11.4133
▁წელს	-11.4133
يب	-11.4135
关	-11.4136
енко	-11.4136
▁Mul	-11.4137
▁Erik	-11.4137
▁Code	-11.4137
▁Kir	-11.4138
▁ji	-11.4138
▁Illinois	-11.4138
▁Mol	-11.414
Si	-11.4141
▁округ	-11.4141
リーグ	-11.4142
ffer	-11.4144
ров	-11.4145
術	-11.4146
▁Fred	-11.4146
ップ	-11.4147
▁1862	-11.4147
▁situé	-11.4148
AR	-11.4148
シャ	-11.4148
▁Titel	-11.415
պ	-11.415
▁pont	-11.415
▁though	-11.4151
▁مر	-11.4152
دان	-11.4153
游	-11.4153
▁పైబడిన	-11.4153
▁training	-11.4153
▁spa	-11.4156
ël	-11.4157
▁events	-11.4157
ını	-11.4157
▁составе	-11.4158
ific	-11.4159
▁generale	-11.4159
▁senior	-11.416
▁Kro	-11.416
▁bass	-11.416
▁Pel	-11.4161
▁college	-11.4161
易	-11.4161
-03-	-11.4162
tent	-11.4164
sä	-11.4164
▁nuevo	-11.4166
▁Бер	-11.4167
2003	-11.4169
▁países	-11.4169
▁etapa	-11.417
sim	-11.4172
γκ	-11.4172
▁punt	-11.4174
αλ	-11.4174
hausen	-11.4174
rta	-11.4175
ળ	-11.4175
▁Roberto	-11.4176
倫	-11.4176
摩	-11.4176
szcz	-11.4178
ирован	-11.4178
▁Coppa	-11.4178
").	-11.4178
▁culture	-11.4178
▁2,5	-11.4179
మైన	-11.4179
▁Кеп	-11.4181
▁gil	-11.4181
▁Sala	-11.4183
▁см	-11.4184
▁Meksiku	-11.4184
ume	-11.4184
ового	-11.4185
▁Epi	-11.4186
んだ	-11.4186
▁Motor	-11.4187
▁If	-11.4187
▁ა	-11.4187
▁하	-11.419
▁Рәсәй	-11.4191
▁Frankfurt	-11.4191
▁bon	-11.4191
▁kort	-11.4192
▁الب	-11.4192
ின்	-11.4192
▁Secret	-11.4192
ët	-11.4192
Italia	-11.4194
▁suas	-11.4194
נית	-11.4194
刊	-11.4194
▁ան	-11.4196
レー	-11.4196
rill	-11.4197
▁lange	-11.4197
ंड	-11.4197
hum	-11.4199
rer	-11.42
▁obefolkad	-11.42
іл	-11.42
▁Say	-11.4202
也是	-11.4202
▁Est	-11.4205
复	-11.4207
▁08	-11.4208
ˈ	-11.4209
酒	-11.4211
ขึ้น	-11.4212
▁Lou	-11.4213
▁Бел	-11.4213
▁río	-11.4214
▁dago	-11.4215
larında	-11.4215
0.	-11.4218
ಿನ	-11.4218
ић	-11.4218
▁januar	-11.4219
▁Trade	-11.422
▁tự	-11.422
ուր	-11.422
▁1872	-11.4221
習	-11.4221
▁ху	-11.4223
養	-11.4223
▁Sommer	-11.4223
パー	-11.4224
▁figura	-11.4225
mani	-11.4225
▁5:	-11.4226
▁Hard	-11.4229
mana	-11.423
よ	-11.423
幸	-11.4231
▁ас	-11.4233
▁ole	-11.4234
सी	-11.4234
кен	-11.4235
▁Spiel	-11.4235
ڈ	-11.4236
论	-11.4236
▁König	-11.4237
▁Vid	-11.4237
tima	-11.4238
elo	-11.4238
▁уз	-11.4239
ыш	-11.4239
▁Georgia	-11.4239
ҙ	-11.424
జ	-11.424
ನೆ	-11.424
eaux	-11.4241
qué	-11.4241
▁nouvelle	-11.4242
holm	-11.4242
opera	-11.4242
▁quanto	-11.4246
گاه	-11.4247
ded	-11.4247
▁features	-11.4248
▁rural	-11.4249
▁alcuni	-11.425
▁Family	-11.425
設計	-11.4251
szy	-11.4252
igi	-11.4252
оч	-11.4254
eron	-11.4255
où	-11.4256
dien	-11.4256
nyt	-11.4258
▁Hof	-11.4259
▁Hel	-11.426
▁komt	-11.4261
▁ამ	-11.4262
▁hard	-11.4263
kr	-11.4264
▁última	-11.4264
▁(1990)	-11.4265
▁mari	-11.4265
tidae	-11.4265
▁Anderson	-11.4266
▁סי	-11.4266
▁mycket	-11.4266
pho	-11.4269
▁molupyo	-11.427
▁kata	-11.4272
▁Bruce	-11.4272
▁Consultáu	-11.4274
ток	-11.4275
gno	-11.4275
ご	-11.4276
ister	-11.4276
▁todas	-11.4276
陳	-11.4277
▁Spanish	-11.428
ဆ	-11.428
▁Tokyo	-11.428
با	-11.4282
▁1998,	-11.4282
▁département	-11.4284
▁Angel	-11.4285
▁Familie	-11.4286
▁äbinons	-11.4286
۵	-11.4288
▁Ме	-11.4288
ನಿ	-11.4289
とも	-11.4289
▁includes	-11.429
▁баш	-11.429
▁besar	-11.4291
fat	-11.4292
▁استان	-11.4292
▁currently	-11.4293
浦	-11.4294
▁proces	-11.4294
▁Lip	-11.4297
phe	-11.4297
▁último	-11.4297
諸	-11.4298
▁Got	-11.43
▁fon	-11.43
ож	-11.4301
▁Let	-11.4302
eerde	-11.4305
த்து	-11.4306
▁aunque	-11.4306
▁quelques	-11.4307
▁proti	-11.4307
▁Medal	-11.4307
▁font	-11.4308
iera	-11.4308
bungtod	-11.4309
파	-11.4309
▁night	-11.431
kki	-11.4312
lega	-11.4313
mış	-11.4313
▁governo	-11.4314
fest	-11.4314
黒	-11.4314
ší	-11.4314
▁obec	-11.4316
tid	-11.4316
▁안	-11.4317
加入	-11.4318
ლ	-11.4319
▁aasta	-11.4321
▁folk	-11.4322
一些	-11.4322
itos	-11.4322
சி	-11.4323
快	-11.4324
اه	-11.4324
▁termine	-11.4326
▁Alle	-11.4327
▁surface	-11.4327
▁wel	-11.4328
vier	-11.4328
▁Claude	-11.4329
沿	-11.433
▁visit	-11.433
▁1869	-11.4331
rand	-11.4331
Jo	-11.4332
▁accept	-11.4332
▁ancora	-11.4332
EN	-11.4333
▁Near	-11.4333
▁dụng	-11.4334
ists	-11.4336
ಲಿ	-11.4337
0.000	-11.4337
▁famiglia	-11.4338
IT	-11.4338
ठ	-11.4341
пре	-11.4341
值	-11.4342
▁gro	-11.4342
▁9,	-11.4342
▁לש	-11.4342
ează	-11.4343
銀	-11.4344
ळ	-11.4344
▁декабря	-11.4346
ాలు	-11.4346
▁Jazz	-11.4349
观	-11.435
出演	-11.435
フェ	-11.435
ారు	-11.4352
豊	-11.4354
▁கா	-11.4354
▁автор	-11.4356
▁వ	-11.4356
▁Ltd	-11.4357
規	-11.4359
ಂಡ	-11.436
щи	-11.436
eel	-11.4361
▁Name	-11.4362
cum	-11.4363
itus	-11.4364
ích	-11.4365
▁стр	-11.4365
2015-05-23	-11.4365
hez	-11.4365
ною	-11.4366
ству	-11.4366
SC	-11.4368
▁período	-11.4369
уш	-11.437
尚	-11.4373
および	-11.4373
▁други	-11.4374
نس	-11.4375
otti	-11.4376
▁Leipzig	-11.4376
▁марта	-11.4377
▁celle	-11.4377
▁tenía	-11.4377
ρι	-11.4378
▁Bus	-11.4378
▁Му	-11.438
дал	-11.4382
стро	-11.4382
▁faz	-11.4383
鐵	-11.4384
ней	-11.4386
▁directed	-11.4387
▁1868	-11.4389
▁Ту	-11.4389
tsch	-11.439
histoire	-11.439
ದು	-11.4391
▁phía	-11.4393
▁Ә	-11.4394
իչ	-11.4395
▁Apollo	-11.4396
rim	-11.4396
善	-11.4396
▁июня	-11.4397
جی	-11.4399
▁diferentes	-11.44
▁allem	-11.4401
став	-11.4401
Ч	-11.4402
▁Call	-11.4403
ერ	-11.4403
íu	-11.4405
▁decision	-11.4405
zat	-11.4406
ੁ	-11.4407
کی	-11.4407
يف	-11.4407
▁español	-11.4408
رة	-11.4408
▁ला	-11.4409
jski	-11.4409
던	-11.441
ंग	-11.4411
▁Southern	-11.4412
ány	-11.4412
▁وجود	-11.4413
遺	-11.4413
▁19,	-11.4415
agi	-11.4416
▁Dictionary	-11.4417
▁Wie	-11.4418
eret	-11.4419
▁الش	-11.4422
ики	-11.4423
tage	-11.4423
ҳо	-11.4424
▁vien	-11.4424
▁vị	-11.4424
▁esca	-11.4424
詞	-11.4424
成功	-11.4425
aw	-11.4425
dek	-11.4425
▁visini	-11.4426
▁Sein	-11.4426
▁simple	-11.4426
▁генерал	-11.4426
▁eight	-11.4429
▁apo	-11.4429
bud	-11.4429
▁geographical	-11.4429
▁その	-11.443
फ	-11.443
停	-11.443
▁apenas	-11.443
สี	-11.4431
▁Microsoft	-11.4432
▁Instituto	-11.4432
▁Ни	-11.4433
▁Studio	-11.4435
▁ইউনিয়ন	-11.4437
▁գ	-11.4438
▁zna	-11.4439
▁Kam	-11.4439
律	-11.444
בר	-11.444
▁Historia	-11.444
imin	-11.444
▁conta	-11.444
没有	-11.444
帯	-11.4441
▁fick	-11.4442
▁canal	-11.4442
سر	-11.4443
説	-11.4444
ють	-11.4444
amba	-11.4444
▁1830	-11.4445
▁nummer	-11.4446
liste	-11.4447
▁Ng	-11.4448
▁Ocean	-11.4448
rna	-11.445
▁verso	-11.4451
▁mayo	-11.4452
▁завод	-11.4453
ichi	-11.4453
▁Jordan	-11.4456
cap	-11.4457
▁digunakan	-11.4457
bund	-11.4458
▁Russia	-11.4458
▁motiv	-11.4459
▁Reich	-11.446
вед	-11.4462
▁low	-11.4462
mber	-11.4462
▁آل	-11.4463
▁së	-11.4464
ння	-11.4467
атор	-11.4467
lli	-11.4467
▁Ei	-11.4468
ER	-11.4468
ぎ	-11.4469
2005	-11.447
フィ	-11.447
▁Dio	-11.4471
▁менен	-11.4471
▁সা	-11.4473
▁वा	-11.4473
▁deutscher	-11.4475
ּ	-11.4475
▁prote	-11.4477
ਿ	-11.4477
▁1,1	-11.4478
系列	-11.4479
▁Bart	-11.4479
▁science	-11.448
標	-11.4481
▁Hol	-11.4481
▁rum	-11.4481
▁Thor	-11.4483
▁continu	-11.4484
iad	-11.4484
roma	-11.4485
▁બ	-11.4486
▁grund	-11.4488
IN	-11.4489
▁Wang	-11.4491
▁concert	-11.4491
▁Mais	-11.4492
را	-11.4492
▁digital	-11.4493
音楽	-11.4494
▁Three	-11.4495
▁poz	-11.4498
▁Amt	-11.4498
에게	-11.4498
▁bản	-11.4501
▁oan	-11.4503
▁Naj	-11.4503
wen	-11.4504
lade	-11.4506
kte	-11.4507
▁partner	-11.4507
▁label	-11.4508
іт	-11.4509
ران	-11.4509
▁გამო	-11.451
▁Test	-11.451
▁Mod	-11.451
▁Country	-11.451
▁Moore	-11.451
▁antara	-11.4511
▁Bij	-11.4513
▁Rei	-11.4514
▁ship	-11.4514
▁Gr	-11.4515
▁הם	-11.4516
առ	-11.4518
ië	-11.4518
ವಾದ	-11.452
ția	-11.452
್ಯಾ	-11.452
▁confi	-11.4522
鄉	-11.4522
ох	-11.4522
uff	-11.4525
▁Wahl	-11.4526
▁Institution	-11.4527
రా	-11.4527
兼	-11.4529
▁Ton	-11.4529
▁وهو	-11.4531
▁Leon	-11.4532
Ed	-11.4533
▁bahasa	-11.4536
▁formation	-11.4541
ય	-11.4541
▁designed	-11.4542
even	-11.4543
ffe	-11.4543
▁panjang	-11.4544
▁completed	-11.4545
▁בית	-11.4545
стер	-11.4547
CH	-11.4547
לו	-11.4548
▁przed	-11.4549
▁hacia	-11.4549
etatik	-11.455
▁সালে	-11.455
ソン	-11.455
活	-11.4551
▁Regie	-11.4552
▁spin	-11.4552
ぐ	-11.4553
▁classe	-11.4554
rap	-11.4554
▁campaign	-11.4554
▁cô	-11.4554
▁jazz	-11.4554
植物	-11.4555
уд	-11.4555
ús	-11.4555
▁kang	-11.4555
ім	-11.4556
ock	-11.4557
PA	-11.4558
టి	-11.4558
▁(25	-11.4561
▁Nations	-11.4562
▁Мор	-11.4563
▁manager	-11.4564
▁followed	-11.4565
ニー	-11.4565
ส์	-11.4567
▁Mix	-11.4569
▁Hil	-11.4569
▁Lind	-11.457
▁quindi	-11.4571
कार	-11.4572
,5%	-11.4573
▁Design	-11.4573
▁Hugo	-11.4573
ām	-11.4574
▁italiana	-11.4575
بل	-11.4575
▁Kaiser	-11.4577
▁relativ	-11.4577
▁Kelly	-11.4577
▁nadmorsko	-11.4579
▁upon	-11.458
▁seconda	-11.458
شت	-11.4581
▁reste	-11.4583
満	-11.4583
мир	-11.4585
▁banyak	-11.4586
售	-11.4587
▁sm	-11.4589
準	-11.4591
輪	-11.4591
酸	-11.4591
urus	-11.4591
▁religion	-11.4592
▁Selected	-11.4593
▁1874	-11.4593
ਵ	-11.4594
▁settembre	-11.4595
kot	-11.4595
vjet	-11.4597
živelo	-11.4598
▁Noruwega	-11.4599
▁presente	-11.46
▁Raj	-11.46
▁versi	-11.4601
▁(2012).	-11.4602
▁Andre	-11.4602
農	-11.4602
রি	-11.4603
確	-11.4605
ключ	-11.4606
▁Рим	-11.4606
യും	-11.4607
▁điểm	-11.4607
ає	-11.4607
▁Sound	-11.4609
pisak	-11.4611
god	-11.4611
▁nafar	-11.4611
▁revista	-11.4612
],	-11.4612
リア	-11.4612
бл	-11.4612
▁Hitler	-11.4615
ून	-11.4616
ações	-11.4617
gil	-11.4618
dienst	-11.4619
Bi	-11.462
▁حتى	-11.462
▁Sus	-11.4621
▁sine	-11.4621
ัง	-11.4621
▁Qua	-11.4623
dic	-11.4623
bek	-11.4623
▁Sil	-11.4624
アメリカ	-11.4624
▁sexual	-11.4625
ową	-11.4625
ონ	-11.4627
ագ	-11.4628
juk	-11.4628
▁Việt	-11.4629
รี	-11.4631
ması	-11.4631
יד	-11.4631
▁dre	-11.4632
▁rôle	-11.4632
ología	-11.4632
ประ	-11.4632
சு	-11.4633
▁हा	-11.4633
되어	-11.4633
▁ohne	-11.4635
▁Bé	-11.4635
▁июля	-11.4636
▁frem	-11.4637
▁Так	-11.4637
▁What	-11.4637
▁rec	-11.4638
וד	-11.4638
▁Had	-11.4638
Я	-11.4642
lau	-11.4644
EL	-11.4644
致	-11.4646
▁brother	-11.4646
争	-11.4647
yla	-11.4648
▁Manchester	-11.4648
▁bun	-11.4648
ből	-11.4649
ще	-11.4649
▁Stati	-11.465
▁Gol	-11.4654
-23	-11.4654
isce	-11.4655
もの	-11.4655
гийн	-11.4657
▁concept	-11.4657
▁tên	-11.4658
յ	-11.4658
▁91	-11.4659
תה	-11.466
▁Although	-11.466
▁Its	-11.4661
▁కళాశాల	-11.4664
çi	-11.4665
▁gift	-11.4665
▁24.	-11.4667
▁municipi	-11.4668
▁También	-11.4669
zal	-11.4669
▁اے۔	-11.4669
tika	-11.467
▁भ	-11.467
▁Since	-11.4671
そ	-11.4672
▁어	-11.4672
menti	-11.4673
▁Milano	-11.4673
圣	-11.4673
続	-11.4673
▁cuộc	-11.4673
▁Vest	-11.4675
ON	-11.4676
▁volume	-11.4676
▁право	-11.4676
▁membres	-11.4677
kop	-11.4677
عة	-11.4678
hou	-11.4678
▁instrument	-11.4679
інде	-11.4679
▁105	-11.468
▁Dur	-11.468
lai	-11.4681
▁Sultan	-11.4681
▁Grad	-11.4682
決定	-11.4682
llis	-11.4685
▁García	-11.4685
倉	-11.4689
▁kawasan	-11.4689
მო	-11.4691
ინ	-11.4691
lığı	-11.4693
zig	-11.4693
▁1865	-11.4694
▁vardır	-11.4694
fund	-11.4697
▁bởi	-11.4697
ellen	-11.4697
ध	-11.47
설	-11.4701
ทั้ง	-11.4701
▁ہو	-11.4701
▁belö	-11.4701
▁Margaret	-11.4702
کس	-11.4702
▁contact	-11.4702
▁battle	-11.4703
rez	-11.4703
日本の	-11.4703
▁Jane	-11.4704
▁nivel	-11.4704
▁0,0	-11.4704
분	-11.4705
dó	-11.4706
▁Sem	-11.4707
▁แต่	-11.471
▁після	-11.471
▁depois	-11.471
▁aos	-11.4711
國際	-11.4712
rado	-11.4713
▁kamp	-11.4713
▁జిల్లా	-11.4714
▁ਆ	-11.4714
▁Wolfgang	-11.4716
▁signal	-11.4716
丁	-11.4717
hov	-11.4718
聲	-11.4718
▁Puerto	-11.4718
▁která	-11.4718
▁Huai	-11.4718
▁там	-11.4719
వు	-11.4719
▁Си	-11.4719
教授	-11.4719
▁Род	-11.472
▁ու	-11.4722
tara	-11.4722
дор	-11.4723
▁informa	-11.4723
ával	-11.4724
▁Hum	-11.4725
▁ese	-11.4726
▁terre	-11.4727
rock	-11.4727
▁Christopher	-11.4728
▁werk	-11.4729
▁stati	-11.473
▁Ло	-11.473
worth	-11.4731
▁%)	-11.4732
▁divers	-11.4732
δ	-11.4733
▁läs	-11.4734
逐	-11.4734
蘇	-11.4736
jak	-11.4737
▁tv	-11.4739
联	-11.4739
▁septiembre	-11.4739
▁została	-11.4739
▁Ресей	-11.4739
▁Dance	-11.474
邦	-11.4742
▁papa	-11.4744
ství	-11.4745
▁경	-11.4745
▁dira	-11.4746
▁tenia	-11.4746
#	-11.4746
▁Century	-11.4747
▁source	-11.4747
▁октября	-11.4747
Lu	-11.4747
▁Ман	-11.4747
▁phần	-11.4747
yk	-11.4748
▁internet	-11.4749
▁action	-11.4749
▁hợp	-11.4751
аг	-11.4752
cula	-11.4752
▁101	-11.4753
्या	-11.4755
▁bezeichnet	-11.4755
▁gennaio	-11.4755
실	-11.4756
നി	-11.4756
▁cả	-11.4756
uck	-11.4757
வை	-11.4758
▁Brit	-11.4759
▁jü	-11.4761
igan	-11.4761
래	-11.4763
▁gobierno	-11.4763
▁libro	-11.4763
▁Number	-11.4764
ified	-11.4765
▁basa	-11.4766
弟	-11.4767
▁bzw	-11.4767
▁ಒಂದು	-11.4768
▁komun	-11.4768
ックス	-11.477
上的	-11.477
▁dokument	-11.4771
่	-11.4772
▁https	-11.4772
atori	-11.4772
ников	-11.4773
▁largo	-11.4773
ttiin	-11.4773
сил	-11.4775
▁1857	-11.4775
ੈ	-11.4776
cen	-11.4777
mıştır	-11.4778
▁PC	-11.4778
nant	-11.4779
ates	-11.4779
▁giugno	-11.478
rent	-11.4782
zd	-11.4783
▁octubre	-11.4783
▁때	-11.4783
нат	-11.4785
▁command	-11.4786
▁مثل	-11.4787
יק	-11.4789
청	-11.479
tı	-11.4791
▁farm	-11.4791
מד	-11.4791
иль	-11.4793
温	-11.4794
能力	-11.4794
▁zou	-11.4795
sted	-11.4795
センター	-11.4797
maan	-11.4797
ற	-11.4798
藏	-11.4799
包	-11.4801
nau	-11.4801
▁שנ	-11.4803
ické	-11.4804
▁determinado	-11.4805
▁wieku	-11.4805
▁הג	-11.4806
▁maggio	-11.4807
MS	-11.4808
цій	-11.4809
נת	-11.481
▁mise	-11.4811
yard	-11.4812
▁Cape	-11.4812
录	-11.4812
▁کتاب	-11.4813
▁histori	-11.4813
ац	-11.4814
▁Forest	-11.4814
auto	-11.4815
▁még	-11.4817
▁Education	-11.4817
▁movement	-11.4817
▁Mid	-11.4819
▁Hamilton	-11.482
rif	-11.482
स्त	-11.4823
▁бир	-11.4823
▁Venezuela	-11.4824
▁originally	-11.4825
スター	-11.4825
dora	-11.4825
tud	-11.4826
▁Death	-11.4826
kri	-11.4827
ღ	-11.4827
▁Gas	-11.4829
bare	-11.4829
▁dire	-11.4831
▁kilometers	-11.4831
ર્	-11.4831
нім	-11.4831
▁város	-11.4831
nı	-11.4832
બ	-11.4833
▁Ces	-11.4833
▁fol	-11.4833
▁wi	-11.4833
▁Sou	-11.4833
探	-11.4834
▁എന്ന	-11.4834
▁Nederland	-11.4835
地域	-11.4836
assi	-11.4837
▁varios	-11.4837
ை	-11.4837
aggio	-11.4837
րի	-11.4839
Her	-11.484
▁phố	-11.484
▁Türk	-11.4841
▁cách	-11.4841
hib	-11.4842
▁Gan	-11.4845
▁Naselje	-11.4847
▁її	-11.4847
tam	-11.4848
南部	-11.4849
網	-11.485
▁experiment	-11.485
▁canton	-11.485
▁elő	-11.485
gü	-11.4853
вор	-11.4854
ָ	-11.4855
▁spielte	-11.4855
ёт	-11.4855
bili	-11.4855
▁szerint	-11.4856
▁cánh	-11.4856
▁04	-11.4856
▁ਸੀ	-11.4857
лик	-11.4858
▁question	-11.4858
▁inspir	-11.4858
▁എ	-11.4858
▁Universal	-11.4858
▁does	-11.4858
▁basis	-11.486
▁Bak	-11.486
▁rang	-11.486
▁цар	-11.4861
ತಿ	-11.4862
▁sob	-11.4862
▁secret	-11.4862
▁Philadelphia	-11.4863
▁statunitense	-11.4863
tol	-11.4863
▁spor	-11.4866
しい	-11.4866
▁article	-11.4866
łu	-11.4867
备	-11.4867
▁før	-11.487
▁prof	-11.487
▁Cas	-11.4872
दा	-11.4873
dá	-11.4875
▁classifica	-11.4876
:30	-11.4876
kil	-11.4878
▁attack	-11.4878
▁petit	-11.4879
▁sing	-11.4879
▁throughout	-11.4881
▁alter	-11.4881
▁growth	-11.4881
urs	-11.4881
ลง	-11.4881
▁Spe	-11.4882
bí	-11.4883
▁ಎ	-11.4884
tani	-11.4885
▁шера	-11.4885
▁katalog	-11.4885
تها	-11.4886
lop	-11.4887
▁nakon	-11.4888
격	-11.4888
kamp	-11.4889
sun	-11.489
ভ	-11.489
▁cit	-11.4891
育	-11.4891
げ	-11.4892
équipe	-11.4893
▁분	-11.4893
▁estadounidense	-11.4893
Α	-11.4894
▁kri	-11.4894
▁Tras	-11.4894
▁kunne	-11.4895
maktadır	-11.4895
▁frente	-11.4896
iq	-11.4896
宋	-11.4897
ゆ	-11.4897
▁کشور	-11.4898
▁Пол	-11.4898
ั	-11.4899
▁américain	-11.49
▁Ав	-11.4901
rne	-11.4901
▁tae	-11.4902
▁cop	-11.4903
▁god	-11.4904
αρ	-11.4905
▁تر	-11.4905
▁sue	-11.4909
▁consider	-11.4911
▁thu	-11.4915
ங்கள்	-11.4915
maa	-11.4915
ري	-11.4917
▁largest	-11.4917
▁kemudian	-11.4918
▁Vascular	-11.4918
رم	-11.4918
、『	-11.4918
▁שי	-11.4918
ují	-11.4919
ität	-11.4919
▁meta	-11.4919
盤	-11.4922
▁ક	-11.4923
雨	-11.4926
ダー	-11.4928
▁firma	-11.4929
▁Jung	-11.493
▁Township	-11.4931
▁seis	-11.4931
uol	-11.4932
vari	-11.4934
▁Chr	-11.4935
▁awarded	-11.4936
ID	-11.4938
難	-11.4939
▁Business	-11.4939
ești	-11.4939
▁Kỳ	-11.4939
знач	-11.494
单	-11.4941
요	-11.4941
ttu	-11.4943
▁بار	-11.4943
▁trouve	-11.4943
▁gewann	-11.4943
▁villa	-11.4944
danis	-11.4944
йн	-11.4946
▁Ü	-11.4946
ними	-11.4946
坂	-11.4947
▁Fur	-11.4947
▁Nur	-11.4948
▁yon	-11.4948
▁мира	-11.4949
രി	-11.4949
▁specific	-11.4949
▁klimatzone	-11.4951
ók	-11.4952
▁bland	-11.4953
dzi	-11.4953
▁Clark	-11.4954
וח	-11.4954
▁week	-11.4955
ტ	-11.4955
運動	-11.4956
▁letech	-11.4956
ಯು	-11.4959
▁170	-11.4959
خلانیلیب	-11.496
lk	-11.496
▁Кара	-11.496
ائی	-11.4961
▁shows	-11.4962
▁projet	-11.4962
களில்	-11.4963
佛	-11.4964
▁cover	-11.4964
wand	-11.4964
▁cơ	-11.4965
▁nou	-11.4966
▁ainda	-11.4966
sive	-11.4966
▁groups	-11.4966
▁above	-11.4967
艾	-11.4968
▁già	-11.4969
▁wilayah	-11.4969
▁kara	-11.4969
▁Hermann	-11.497
เจ้า	-11.497
ink	-11.497
▁kis	-11.4971
py	-11.4971
▁1997,	-11.4971
itar	-11.4972
▁goal	-11.4973
▁mondo	-11.4973
▁están	-11.4976
▁finished	-11.4976
pla	-11.4976
▁(1989)	-11.4977
▁jeden	-11.4977
人物	-11.4977
▁amely	-11.4979
▁madre	-11.4979
▁وا	-11.4979
▁tend	-11.4979
▁ker	-11.4979
国際	-11.4981
łow	-11.4982
▁julio	-11.4982
mata	-11.4982
▁تاریخینده	-11.4983
授	-11.4983
▁Nr	-11.4984
▁Petr	-11.4985
換	-11.4985
台灣	-11.4986
▁หรือ	-11.4988
▁гол	-11.4988
▁killed	-11.4988
tino	-11.4989
▁pels	-11.4991
-09-	-11.4991
ény	-11.4991
кор	-11.4992
苏	-11.4995
▁especial	-11.4997
協	-11.4998
兴	-11.4998
Star	-11.4999
▁მი	-11.5
▁access	-11.5
▁Ша	-11.5
▁Deze	-11.5
▁mille	-11.5002
以上	-11.5002
▁Synonymic	-11.5002
▁சி	-11.5003
▁skład	-11.5004
▁ebenfalls	-11.5005
ních	-11.5006
ார்	-11.5006
run	-11.5006
堡	-11.5006
kiem	-11.5008
زی	-11.5008
inių	-11.501
专	-11.5011
bos	-11.5011
大阪	-11.5011
పు	-11.5011
中文	-11.5012
ać	-11.5014
▁lá	-11.5016
форм	-11.5017
-30	-11.5018
်	-11.5019
仍	-11.5019
▁edición	-11.5019
▁Hoch	-11.5019
llä	-11.5021
▁йылға	-11.5023
อยู่	-11.5023
▁kommune	-11.5024
elsen	-11.5026
▁junio	-11.5028
▁1859	-11.5029
▁Wil	-11.5029
ило	-11.503
▁rend	-11.5032
èr	-11.5034
足球	-11.5034
thy	-11.5035
▁Pet	-11.5035
▁Kevin	-11.5035
▁Fri	-11.5036
under	-11.5036
sio	-11.5037
▁sel	-11.5038
▁(2014)	-11.5039
支持	-11.5041
ică	-11.5041
cm	-11.5042
▁הח	-11.5044
雙	-11.5045
itä	-11.5045
bei	-11.5046
▁свет	-11.5046
▁casi	-11.5047
jun	-11.5048
▁dalle	-11.5048
チーム	-11.505
▁тому	-11.505
▁prim	-11.5052
▁стала	-11.5053
▁Վ	-11.5055
洲	-11.5056
▁nhưng	-11.5057
▁кол	-11.5058
чка	-11.5058
லை	-11.5058
ibi	-11.5062
cima	-11.5062
▁sydöstra	-11.5062
▁파	-11.5063
▁adopt	-11.5063
▁(20	-11.5063
▁الج	-11.5064
▁(19	-11.5064
১	-11.5066
▁каталог	-11.507
▁دور	-11.507
▁природ	-11.5071
اش	-11.5072
▁1,4	-11.5073
bad	-11.5073
ട്ട	-11.5075
▁geslacht	-11.5075
▁gdzie	-11.5077
סי	-11.5077
▁Fal	-11.5078
ishi	-11.5078
▁states	-11.5079
巡	-11.5079
▁phải	-11.5079
EP	-11.508
klar	-11.508
ança	-11.5081
შ	-11.5081
▁intens	-11.5081
siya	-11.5083
▁Village	-11.5084
bier	-11.5085
rug	-11.5085
▁Gene	-11.5085
暴	-11.5086
▁Mess	-11.5087
▁dabei	-11.5087
ових	-11.5087
lant	-11.5089
entre	-11.5089
▁ਇਸ	-11.509
डी	-11.5091
▁DJ	-11.5092
▁esse	-11.5092
usu	-11.5092
ныя	-11.5093
IS	-11.5094
▁remained	-11.5094
ális	-11.5095
▁उत्तराखण्ड	-11.5096
▁wenn	-11.5097
▁участие	-11.5098
sze	-11.5098
▁altres	-11.5098
ување	-11.5099
unu	-11.5099
督	-11.51
gla	-11.51
▁Deutschen	-11.5101
▁Pass	-11.5101
ร์	-11.5101
ulus	-11.5103
▁vive	-11.5103
▁niveau	-11.5103
▁begin	-11.5104
歳	-11.5104
▁neuen	-11.5104
ನ್ನು	-11.5105
▁bang	-11.5105
▁déc	-11.5105
SF	-11.5106
ijn	-11.5108
PC	-11.5109
lip	-11.511
แล้ว	-11.511
▁insect	-11.5111
▁Walker	-11.5112
▁Ел	-11.5112
rina	-11.5113
သည်။	-11.5113
红	-11.5113
▁kimi	-11.5114
gne	-11.5117
▁fik	-11.5117
▁graf	-11.5117
▁junior	-11.5118
▁də	-11.5119
▁existe	-11.5119
こと	-11.512
אה	-11.5121
▁Александр	-11.5121
lica	-11.5122
Ε	-11.5122
աց	-11.5123
aut	-11.5123
8;	-11.5124
ode	-11.5124
▁varia	-11.5125
ကြီး	-11.5126
▁erst	-11.5127
AD	-11.5128
▁drie	-11.5129
iar	-11.5129
▁pé	-11.5132
▁Congress	-11.5133
▁పాఠశాల	-11.5134
schi	-11.5134
▁Bla	-11.5135
▁Roz	-11.5135
▁Mans	-11.5135
larının	-11.5136
iek	-11.5137
▁född	-11.5137
▁vit	-11.5137
▁És	-11.5138
梁	-11.5139
▁första	-11.5139
▁restaur	-11.514
noj	-11.514
▁entry	-11.5141
▁otra	-11.5142
庫	-11.5142
▁saat	-11.5143
gren	-11.5143
CI	-11.5143
▁lenghe	-11.5144
dle	-11.5145
лон	-11.5145
▁porte	-11.5145
写	-11.5147
▁Năm	-11.5148
ετ	-11.5148
▁train	-11.5148
▁rev	-11.515
▁Princeton	-11.515
▁região	-11.5152
мін	-11.5153
▁Standard	-11.5153
▁recensement	-11.5153
qa	-11.5154
▁schools	-11.5154
verk	-11.5155
▁מס	-11.5155
ায়	-11.5155
▁aby	-11.5157
▁død	-11.5157
▁reported	-11.5158
▁gebruik	-11.5158
▁autre	-11.5161
디	-11.5162
ása	-11.5162
ελ	-11.5162
▁norsk	-11.5162
▁sector	-11.5163
gebiet	-11.5163
hte	-11.5163
nig	-11.5163
My	-11.5165
ӯ	-11.5167
▁liv	-11.5168
▁когда	-11.5169
▁1840	-11.517
▁vald	-11.5171
ങ്ങൾ	-11.5171
ҳои	-11.5172
替	-11.5173
▁temperatura	-11.5173
نو	-11.5175
▁kā	-11.5175
▁problema	-11.5175
▁muerte	-11.5176
իս	-11.5176
▁geen	-11.5176
▁пр	-11.5177
▁nego	-11.5177
▁moral	-11.5179
uonna	-11.518
▁poly	-11.518
▁Front	-11.5181
uso	-11.5182
▁Box	-11.5183
▁ис	-11.5183
cara	-11.5185
▁taun	-11.5185
%,	-11.5186
owie	-11.5186
篇	-11.5186
즈	-11.5186
▁Toronto	-11.5186
都市	-11.5188
▁kako	-11.519
▁उत्तर	-11.5191
स्	-11.5192
▁серед	-11.5194
激	-11.5195
▁Missouri	-11.5195
微	-11.5195
้า	-11.5196
▁115	-11.5196
▁Deutsche	-11.5197
▁94	-11.5199
▁खः	-11.5199
▁Ontario	-11.52
▁quello	-11.52
лей	-11.5201
▁двух	-11.5202
▁pang	-11.5202
瑞	-11.5203
ต่อ	-11.5204
效	-11.5204
▁hely	-11.5205
▁lập	-11.5205
▁président	-11.5206
▁tap	-11.5206
▁여	-11.5207
mə	-11.5208
▁Catherine	-11.5208
▁роман	-11.5208
▁podob	-11.521
▁mah	-11.5211
اح	-11.5212
ając	-11.5212
kami	-11.5214
▁liste	-11.5215
ทรง	-11.5215
▁Giuseppe	-11.5215
炮	-11.5217
će	-11.5217
verein	-11.5218
വി	-11.5219
RO	-11.522
▁voz	-11.5221
▁decide	-11.5221
▁sea	-11.5221
請	-11.5221
kara	-11.5221
▁проект	-11.5221
GA	-11.5221
ಸಿ	-11.5221
gna	-11.5223
hra	-11.5223
icht	-11.5225
▁сентября	-11.5226
মা	-11.5229
刘	-11.5229
▁ത	-11.5229
▁Alberto	-11.5232
τε	-11.5232
žu	-11.5234
▁కూడా	-11.5234
ကြ	-11.5236
tě	-11.5237
油	-11.5238
lier	-11.5239
odd	-11.5239
▁gh	-11.524
▁være	-11.524
▁fl	-11.5241
▁habitatges	-11.5241
▁oma	-11.5244
▁bul	-11.5244
▁rak	-11.5247
▁апреля	-11.5247
▁Health	-11.5247
▁коли	-11.5248
ző	-11.5248
esc	-11.5249
ote	-11.525
▁Сер	-11.525
ဲ	-11.525
atan	-11.5252
plat	-11.5252
▁재	-11.5252
▁rat	-11.5253
▁fill	-11.5254
魯	-11.5256
▁giới	-11.5256
▁mientras	-11.5256
platz	-11.5256
flu	-11.5257
ristupljeno	-11.5257
ίου	-11.5258
zak	-11.5258
вали	-11.5259
nger	-11.5259
医	-11.5259
▁toda	-11.526
изм	-11.526
選手	-11.5261
fl	-11.5263
வா	-11.5265
▁bija	-11.5265
▁dicembre	-11.5266
น้ํา	-11.5266
▁emp	-11.5266
▁teil	-11.5267
負	-11.5269
現在	-11.5269
▁Silver	-11.527
phi	-11.5271
ξ	-11.5271
▁membre	-11.5273
▁других	-11.5273
▁leading	-11.5274
▁위	-11.5274
ність	-11.5274
▁mir	-11.5275
▁Mind	-11.5276
▁estava	-11.5277
给	-11.5277
▁Sk	-11.5278
เล	-11.528
▁Menschen	-11.5281
▁esas	-11.5281
▁مربع	-11.5282
kl	-11.5283
▁관	-11.5283
▁Til	-11.5284
▁hold	-11.5285
▁após	-11.5285
▁Bud	-11.5286
▁Neben	-11.5288
▁stark	-11.5289
tors	-11.5291
רי	-11.5291
▁Ferdinand	-11.5292
erin	-11.5292
aciones	-11.5293
▁havde	-11.5293
▁області	-11.5293
▁жылы	-11.5293
ére	-11.5294
▁pass	-11.5294
▁dog	-11.5295
னி	-11.5296
கு	-11.5297
▁cinq	-11.5298
нер	-11.5298
റ്റ	-11.5298
▁igual	-11.5298
殿	-11.5299
▁luglio	-11.5299
▁phân	-11.53
▁Castle	-11.53
▁featured	-11.5301
mun	-11.5301
ακ	-11.5303
!"	-11.5303
▁свою	-11.5304
amp	-11.5304
▁size	-11.5304
All	-11.5305
تي	-11.5307
▁še	-11.5307
ոլ	-11.5307
bles	-11.5308
日閲覧	-11.5308
فا	-11.5309
▁brand	-11.531
▁sale	-11.5311
▁Jun	-11.5312
▁Jorge	-11.5312
ální	-11.5314
arak	-11.5315
▁Федерации	-11.5317
▁muito	-11.5317
quin	-11.5318
estre	-11.5318
▁corre	-11.5319
▁futbol	-11.5319
产	-11.532
▁ку	-11.5321
▁Cel	-11.5321
▁Irish	-11.5323
戸	-11.5324
▁(1987)	-11.5325
யா	-11.5326
▁alguns	-11.5326
miş	-11.5327
▁হ	-11.5328
eten	-11.5329
▁0,1	-11.5329
▁Charlie	-11.533
מי	-11.5331
▁વ	-11.5332
▁tijd	-11.5333
▁songs	-11.5333
می	-11.5334
iam	-11.5334
▁Ing	-11.5335
article	-11.5335
▁cele	-11.5335
▁added	-11.5335
▁Ass	-11.5336
▁век	-11.5337
▁Franc	-11.5337
comp	-11.5337
▁según	-11.5338
zug	-11.5338
優勝	-11.5339
▁network	-11.534
▁german	-11.5341
▁годах	-11.5342
丸	-11.5343
▁зі	-11.5343
uten	-11.5343
▁Families	-11.5345
мал	-11.5345
kunde	-11.5345
▁Në	-11.5345
にて	-11.5346
ತ್ತ	-11.5349
▁קו	-11.535
kap	-11.535
aten	-11.5351
▁ere	-11.5351
▁državi	-11.5351
▁zm	-11.5352
린	-11.5352
ники	-11.5352
dera	-11.5353
▁typ	-11.5355
▁Jahrhunderts	-11.5356
宇	-11.5361
-25	-11.5361
▁trở	-11.5361
▁Rev	-11.5362
▁Holland	-11.5363
-6	-11.5363
▁Porto	-11.5364
铁	-11.5364
▁deriva	-11.5365
峰	-11.5365
▁Мал	-11.5365
vos	-11.5366
▁dernier	-11.5368
▁hom	-11.5368
Go	-11.5369
schule	-11.537
▁מש	-11.5373
tiques	-11.5374
标	-11.5374
▁move	-11.5375
iksi	-11.5375
開発	-11.5378
란	-11.5378
iaceae	-11.5378
▁genannt	-11.5381
畫	-11.5381
하게	-11.5381
իա	-11.5382
▁vista	-11.5384
▁Dark	-11.5384
гал	-11.5384
▁nor	-11.5386
▁protein	-11.5386
翼	-11.5387
gul	-11.5389
▁دیگر	-11.539
▁nahm	-11.5391
▁Barat	-11.5391
遊	-11.5391
rë	-11.5391
лас	-11.5392
▁involved	-11.5393
▁była	-11.5393
انه	-11.5394
專	-11.5396
uran	-11.5396
▁Born	-11.5396
▁Cant	-11.5397
iner	-11.5398
lín	-11.5399
తి	-11.5399
▁Вы	-11.54
സി	-11.5401
▁Has	-11.5402
▁Orthoptera	-11.5403
とする	-11.5404
▁Stuttgart	-11.5404
▁DC	-11.5404
tka	-11.5404
における	-11.5405
άρ	-11.5406
▁pes	-11.5406
▁gouvernement	-11.5409
тик	-11.541
▁Baker	-11.541
▁Wol	-11.5411
까지	-11.5413
année	-11.5413
зар	-11.5414
cije	-11.5415
▁小	-11.5415
shire	-11.5416
▁ev	-11.5418
▁centrale	-11.5418
▁baz	-11.5419
На	-11.5419
Fa	-11.542
హ	-11.5421
iai	-11.5423
▁code	-11.5424
▁ενώ	-11.5426
恋	-11.5427
▁beberapa	-11.5427
Kr	-11.5427
εται	-11.5427
▁(1986)	-11.5427
▁desa	-11.5428
รา	-11.5429
uose	-11.543
त्र	-11.5432
▁bro	-11.5433
▁Dorf	-11.5434
▁ground	-11.5434
▁فہرست	-11.5436
yen	-11.5436
▁box	-11.5437
판	-11.5439
גו	-11.5439
skej	-11.544
▁episodio	-11.544
▁ogni	-11.5442
妹	-11.5445
ყ	-11.5445
エル	-11.5446
▁einige	-11.5447
▁bronze	-11.5447
▁assist	-11.5447
ора	-11.5449
▁εξ	-11.5449
▁Rudolf	-11.5449
stoff	-11.545
▁’	-11.545
▁either	-11.5452
ope	-11.5452
▁۔	-11.5453
▁negara	-11.5453
▁Mittel	-11.5456
లా	-11.5457
ூ	-11.5457
▁primi	-11.5458
▁כמו	-11.5459
ино	-11.5459
▁pasa	-11.5459
ファ	-11.546
éc	-11.5461
云	-11.5462
▁среди	-11.5465
▁Ду	-11.5465
形成	-11.5465
git	-11.5467
▁Luc	-11.5467
▁ल	-11.5468
▁saw	-11.5469
Die	-11.5469
▁두	-11.5469
▁soll	-11.547
逃	-11.5471
▁metres	-11.5472
σι	-11.5475
มิ	-11.5475
▁arī	-11.5476
▁passage	-11.5477
sjon	-11.5478
ș	-11.5478
pic	-11.5478
▁Factbook	-11.548
▁które	-11.548
▁Sid	-11.548
需要	-11.548
▁chu	-11.548
▁زبان	-11.548
▁rap	-11.5481
▁Mü	-11.5482
ț	-11.5482
ault	-11.5483
▁schon	-11.5483
itta	-11.5484
цу	-11.5487
tain	-11.5489
▁direkt	-11.5489
▁میکند	-11.5489
▁break	-11.5491
ற்ற	-11.5492
▁bron	-11.5493
bt	-11.5493
▁Haute	-11.5496
▁anderem	-11.5497
mission	-11.5497
▁bagi	-11.5497
▁ஊராட்சி	-11.5498
臣	-11.5499
▁đội	-11.5499
აში	-11.5502
罪	-11.5502
▁health	-11.5503
ந்து	-11.5503
нен	-11.5504
▁Rum	-11.5504
▁годы	-11.5505
▁Sc	-11.5505
เส	-11.5505
▁París	-11.5508
tér	-11.5508
yama	-11.5508
▁mål	-11.551
徒	-11.551
アルバム	-11.5511
特別	-11.5512
śni	-11.5513
▁Andrea	-11.5513
▁कथं	-11.5513
halt	-11.5514
アー	-11.5514
pris	-11.5515
亡	-11.5515
وق	-11.5517
題	-11.5518
▁جن	-11.5518
▁Delhi	-11.5519
▁dones	-11.5519
▁dok	-11.5519
ían	-11.552
演出	-11.5521
ライ	-11.5522
▁三	-11.5522
יר	-11.5522
▁Donald	-11.5523
▁Lima	-11.5524
င်း	-11.5527
ҳ	-11.5528
▁monument	-11.5528
▁ekonomi	-11.5529
シー	-11.553
▁recent	-11.553
▁Dave	-11.5531
anga	-11.5531
isia	-11.5532
ιστ	-11.5532
▁брат	-11.5533
izi	-11.5533
kari	-11.5534
mah	-11.5535
▁usually	-11.5535
▁노	-11.5535
kam	-11.5536
▁בר	-11.5538
▁című	-11.5538
بي	-11.5538
▁debido	-11.5538
▁1990,	-11.5539
▁mind	-11.554
▁presso	-11.5541
دو	-11.5541
▁months	-11.5543
ım	-11.5543
▁Express	-11.5543
▁Lim	-11.5543
arse	-11.5544
“)	-11.5545
▁Object	-11.5545
nach	-11.5545
▁Hai	-11.5545
▁situat	-11.5546
၍	-11.5547
▁asli	-11.5547
桥	-11.5547
ског	-11.5547
▁طرفیند	-11.5547
▁יש	-11.5548
점	-11.5548
SI	-11.5549
▁იყო	-11.5549
▁capita	-11.555
▁lle	-11.5553
▁Morgan	-11.5553
פת	-11.5553
สุ	-11.5554
▁poet	-11.5555
▁notable	-11.5556
west	-11.5557
पुर	-11.5558
ਲਾ	-11.5559
沒有	-11.5559
胡	-11.556
監	-11.556
▁board	-11.5561
FA	-11.5561
▁їх	-11.5561
▁popul	-11.5562
▁Adolf	-11.5562
atti	-11.5566
CO	-11.5567
ુ	-11.5567
▁Canal	-11.5567
▁fle	-11.5567
▁least	-11.5568
nyo	-11.5569
mara	-11.5571
ovala	-11.5572
▁ще	-11.5572
▁Hat	-11.5573
די	-11.5573
较	-11.5574
鳥	-11.5574
▁Շ	-11.5574
RI	-11.5575
▁عشر	-11.5578
▁eventually	-11.5579
▁مجموع	-11.558
▁conquista	-11.558
▁karakter	-11.5583
AF	-11.5585
▁श	-11.5586
▁software	-11.5586
след	-11.5588
▁Conference	-11.5588
▁hod	-11.5588
▁Raja	-11.5589
▁új	-11.559
▁eo	-11.559
▁key	-11.559
rop	-11.5591
kro	-11.5591
)"	-11.5592
▁SM	-11.5593
class	-11.5593
5%	-11.5594
▁това	-11.5596
▁lớn	-11.5596
▁Via	-11.5598
▁Fel	-11.5598
▁भारतया	-11.5598
独	-11.56
▁Kanton	-11.5601
ürfat	-11.5601
▁Catalog	-11.5602
ծ	-11.5604
έρ	-11.5605
▁сил	-11.5605
▁tournament	-11.5605
▁аст	-11.5606
▁sc	-11.5607
эй	-11.5608
▁review	-11.5609
ių	-11.561
▁både	-11.561
功	-11.561
υρ	-11.5611
ters	-11.5611
▁Nem	-11.5612
)(	-11.5613
▁оста	-11.5613
երը	-11.5613
mag	-11.5614
▁turno	-11.5614
▁نسخة	-11.5614
▁Danmark	-11.5615
行政	-11.5615
▁система	-11.5617
mgivningarna	-11.5617
情報	-11.5617
ડ	-11.5618
SP	-11.5618
材	-11.5619
▁Minnesota	-11.5619
▁είχε	-11.5619
parti	-11.5619
ră	-11.5621
▁Earl	-11.5622
ест	-11.5622
▁Brun	-11.5622
▁Vice	-11.5622
дон	-11.5623
ological	-11.5623
▁Cli	-11.5625
▁стан	-11.5627
ախ	-11.5628
▁Bun	-11.5629
办	-11.5629
ブル	-11.563
▁కా	-11.5631
▁یہ	-11.5635
ლი	-11.5636
▁contribu	-11.5636
▁Machine	-11.5636
▁Six	-11.5637
èl	-11.5637
5,000	-11.5637
▁Adams	-11.564
▁تک	-11.5641
▁Arc	-11.5642
▁граф	-11.5643
иг	-11.5643
▁1996,	-11.5644
icu	-11.5645
▁deur	-11.5646
▁kommunen	-11.5646
▁Channel	-11.5646
ਦਾ	-11.5647
▁ry	-11.5647
ène	-11.5647
▁Frauen	-11.5648
▁lado	-11.5649
cional	-11.5652
ικής	-11.5652
চ	-11.5652
his	-11.5653
हा	-11.5653
▁Lepidoptera	-11.5654
散	-11.5655
cem	-11.5656
▁considera	-11.5657
▁enero	-11.5657
▁Greek	-11.5658
ándose	-11.5659
味	-11.5659
pio	-11.566
▁Oktubre	-11.566
▁fir	-11.5661
▁Nag	-11.5663
▁Frau	-11.5664
▁Roll	-11.5664
▁mano	-11.5666
▁river	-11.5666
psi	-11.5669
▁sex	-11.567
▁effet	-11.567
шин	-11.5672
▁pru	-11.5673
כו	-11.5673
▁2018,	-11.5674
room	-11.5675
▁SE	-11.5676
▁gradova	-11.5677
▁Class	-11.5678
▁komp	-11.5678
▁xa	-11.568
▁hele	-11.5682
mma	-11.5683
▁1985.	-11.5683
▁trop	-11.5684
▁Rein	-11.5685
埃	-11.5686
露	-11.5687
▁trường	-11.5687
igkeit	-11.5687
quet	-11.5688
▁app	-11.5691
眼	-11.5691
▁tradicional	-11.5691
▁цел	-11.5691
▁Magazine	-11.5692
▁Noord	-11.5693
▁რომ	-11.5694
▁computer	-11.5695
▁waard	-11.5696
横	-11.5696
规	-11.5696
▁Arg	-11.5698
̀	-11.57
થી	-11.5705
jm	-11.5705
▁participa	-11.5706
wn	-11.5707
朱	-11.5709
▁Get	-11.571
llo	-11.571
▁Peak	-11.5711
nna	-11.5711
ував	-11.5711
▁đi	-11.5713
▁Harvard	-11.5716
因为	-11.5717
gam	-11.5717
▁daerah	-11.5718
▁17,	-11.5718
▁Ved	-11.5721
won	-11.5722
ość	-11.5722
tare	-11.5723
▁chức	-11.5724
uel	-11.5724
ਤਾ	-11.5726
▁chez	-11.5727
igne	-11.5727
▁primordial	-11.5728
èrent	-11.573
ках	-11.573
▁tamién	-11.5732
elia	-11.5734
้	-11.5734
▁Sche	-11.5734
ції	-11.5734
чки	-11.5735
ук	-11.5735
▁права	-11.5737
▁telt	-11.5737
▁Spain	-11.5738
eño	-11.5739
èn	-11.5739
▁senza	-11.574
▁oldu	-11.574
▁pedig	-11.5741
mul	-11.5742
rei	-11.5742
ниот	-11.5746
▁ਤੋਂ	-11.5746
ється	-11.5746
ահ	-11.5747
वर	-11.5749
لي	-11.5749
▁terug	-11.575
▁Soc	-11.5751
ES	-11.5753
▁Sang	-11.5753
からの	-11.5753
▁128	-11.5754
完全	-11.5755
▁הראשון	-11.5755
▁trước	-11.5755
刑	-11.5756
劉	-11.5756
ால்	-11.5758
เบ	-11.576
▁SC	-11.5761
庄	-11.5762
▁frei	-11.5762
態	-11.5764
ыл	-11.5766
▁Các	-11.5766
▁euro	-11.5766
小学校	-11.5766
▁Bai	-11.5768
▁غير	-11.5768
述	-11.5768
времен	-11.5768
▁Jonathan	-11.5769
డు	-11.577
инг	-11.5771
மை	-11.5772
▁통	-11.5773
বা	-11.5773
mad	-11.5774
liz	-11.5774
▁عمل	-11.5774
印度	-11.5776
خت	-11.5777
mot	-11.5778
▁նաեւ	-11.5778
▁мест	-11.5779
▁Хар	-11.578
▁riktning	-11.5783
▁promo	-11.5783
പ്പ	-11.5785
▁paper	-11.5785
ець	-11.5787
മായ	-11.5788
国际	-11.5788
▁υπο	-11.5788
▁Tin	-11.5789
▁Gustav	-11.5789
▁территории	-11.579
▁Johnny	-11.579
lies	-11.5791
▁ք	-11.5792
同時	-11.5794
増	-11.5796
▁단	-11.5797
–16	-11.5797
▁Timur	-11.5798
İ	-11.5801
▁ф	-11.5801
ról	-11.5802
▁mezi	-11.5803
▁mam	-11.5804
bak	-11.5804
▁aantal	-11.5804
tallet	-11.5805
teil	-11.5805
phon	-11.5806
▁scored	-11.5808
▁Japon	-11.5808
▁serve	-11.581
bran	-11.5811
gruppe	-11.5812
San	-11.5812
▁Ou	-11.5812
▁studies	-11.5812
ချ	-11.5813
ီ	-11.5814
ible	-11.5814
息	-11.5815
▁sala	-11.5815
iwa	-11.5816
umu	-11.5816
▁gdje	-11.5816
▁gw	-11.5816
По	-11.5816
▁এক	-11.5818
ады	-11.5819
▁parts	-11.5819
▁mois	-11.5819
傷	-11.5819
耶	-11.5819
ッド	-11.582
ตร	-11.582
▁nature	-11.5821
table	-11.5821
▁آنها	-11.5823
諾	-11.5824
▁đại	-11.5824
▁Trong	-11.5824
эт	-11.5825
▁wegen	-11.5826
▁cases	-11.5826
▁Pseudo	-11.5826
▁1858	-11.5826
рат	-11.5827
出身	-11.5827
▁Salvador	-11.5829
▁1989.	-11.5831
rö	-11.5833
ीय	-11.5834
ပါ	-11.5834
▁první	-11.5835
ција	-11.5836
▁nej	-11.5836
売	-11.5837
▁которых	-11.5838
ář	-11.5838
як	-11.5844
ED	-11.5844
▁anul	-11.5844
▁må	-11.5845
lles	-11.5846
▁αλλά	-11.5846
roz	-11.5847
乱	-11.5847
▁Schloss	-11.5847
▁ради	-11.5847
ensi	-11.5848
լի	-11.5849
▁себе	-11.585
த்தின்	-11.585
▁Chan	-11.5852
ihin	-11.5852
tana	-11.5853
fre	-11.5853
ย์	-11.5853
ート	-11.5856
徳	-11.5856
▁Según	-11.5857
▁сер	-11.5857
Art	-11.5858
▁zde	-11.5858
▁ministre	-11.5858
▁NBA	-11.5859
illi	-11.5859
▁ومن	-11.586
健	-11.5861
▁Während	-11.5861
▁ఎ	-11.5861
▁kanal	-11.5863
שי	-11.5865
dica	-11.5866
nú	-11.5866
āl	-11.5867
▁vocals	-11.5868
時期	-11.5868
▁انگریزی	-11.5868
chel	-11.5869
cola	-11.5871
▁fo	-11.5872
jt	-11.5872
▁karena	-11.5872
▁function	-11.5874
▁hội	-11.5875
yev	-11.5875
▁arab	-11.5878
▁Museo	-11.5878
반	-11.5878
직	-11.5878
衣	-11.5879
▁ਇੱਕ	-11.5879
▁حسب	-11.588
変	-11.588
▁Maz	-11.5881
▁hang	-11.5882
âm	-11.5883
▁Clo	-11.5883
inha	-11.5883
▁Denne	-11.5884
▁kadar	-11.5884
▁Baden	-11.5886
▁Partido	-11.5886
▁Qa	-11.5886
單	-11.5886
uko	-11.5886
itis	-11.5887
ゲ	-11.5888
Er	-11.5889
▁daripada	-11.589
dad	-11.589
▁Pos	-11.589
▁(2)	-11.5892
ਰਾ	-11.5893
tón	-11.5893
천	-11.5893
SU	-11.5894
▁교	-11.5895
ジャ	-11.5896
▁noviembre	-11.5898
▁meilleur	-11.5898
andra	-11.5898
▁Mini	-11.5898
namen	-11.5899
▁importantes	-11.5901
共同	-11.5902
▁Duke	-11.5902
観	-11.5902
樓	-11.5902
OR	-11.5903
骨	-11.5903
▁estilo	-11.5904
യുടെ	-11.5905
قل	-11.5906
▁bằng	-11.5907
刻	-11.5907
لر	-11.5908
▁уже	-11.5908
になる	-11.5908
یی	-11.5908
лін	-11.591
atge	-11.5911
▁aki	-11.5911
▁ժամանակ	-11.5912
京都	-11.5913
▁travers	-11.5915
▁Spo	-11.5915
▁Pha	-11.5915
ується	-11.5916
▁especies	-11.5916
ゼ	-11.5917
▁arm	-11.5917
ander	-11.5918
▁coll	-11.5919
ming	-11.5919
ಧ	-11.5919
库	-11.592
ড	-11.5921
▁samme	-11.5922
▁шыв	-11.5922
▁üçün	-11.5922
▁utiliza	-11.5922
▁nombreux	-11.5922
▁Chart	-11.5922
▁Cos	-11.5923
igt	-11.5924
▁Liber	-11.5925
▁районе	-11.5926
▁Amor	-11.5926
▁Lincoln	-11.5926
▁국	-11.5927
ič	-11.5928
ज़	-11.5928
eniu	-11.5928
▁brit	-11.5929
▁Ол	-11.5929
▁große	-11.5929
▁Maj	-11.5929
ரை	-11.593
▁Вер	-11.5931
▁deuxième	-11.5931
▁Ala	-11.5931
▁1986.	-11.5931
וז	-11.5932
▁Dub	-11.5932
▁ప్రభుత్వ	-11.5932
wak	-11.5934
▁Pays	-11.5935
ふ	-11.5935
▁Hir	-11.5935
zz	-11.5936
یب	-11.5936
▁Suomen	-11.5937
認為	-11.5937
▁שני	-11.5937
▁lomanef	-11.5938
▁bud	-11.5938
▁metod	-11.594
ег	-11.5941
▁тип	-11.5941
ヘ	-11.5941
घ	-11.5942
based	-11.5943
טי	-11.5944
ீ	-11.5944
▁гг	-11.5945
▁1981.	-11.5946
ನ್ನ	-11.5946
▁contour	-11.5946
▁Yang	-11.5946
创	-11.5948
▁tax	-11.5949
▁הפ	-11.5949
.5%	-11.5952
▁має	-11.5952
▁Tot	-11.5952
▁(1988)	-11.5954
▁pul	-11.5955
▁108	-11.5957
▁Vy	-11.5957
▁실	-11.5958
▁만	-11.5958
▁Bos	-11.5958
üz	-11.5958
ாக	-11.596
ಾಗ	-11.5962
▁تاریخ	-11.5963
▁δι	-11.5963
▁Technology	-11.5963
▁anima	-11.5964
▁Autor	-11.5964
▁Pablo	-11.5964
hart	-11.5964
ік	-11.5964
▁writing	-11.5964
▁шийла	-11.5965
▁(1991)	-11.5966
ично	-11.5966
ရာ	-11.5967
▁なお	-11.5968
kken	-11.5968
▁ایشلدنلر	-11.5968
▁Partei	-11.5969
▁père	-11.597
chter	-11.5971
key	-11.5971
▁ella	-11.5972
园	-11.5972
sek	-11.5972
▁ਹਨ	-11.5972
▁یارانمیش	-11.5973
orden	-11.5973
ures	-11.5973
ép	-11.5973
▁weiter	-11.5974
ності	-11.5974
tron	-11.5974
▁fur	-11.5975
▁1994,	-11.5977
▁thống	-11.5977
▁période	-11.5977
▁بلغ	-11.5977
ति	-11.598
▁Wright	-11.5981
minister	-11.5981
晚	-11.5982
ούν	-11.5985
vic	-11.5986
▁kwam	-11.5986
▁degree	-11.5987
経	-11.5987
chin	-11.5987
wei	-11.5988
களின்	-11.5988
▁Gary	-11.5988
▁sản	-11.5988
▁επ	-11.5989
▁više	-11.599
Fi	-11.5991
▁Kansas	-11.5991
▁مقالهسین	-11.5991
▁Garden	-11.5992
▁proceni	-11.5992
陈	-11.5992
নের	-11.5993
rn	-11.5993
▁sum	-11.5994
▁aparece	-11.5995
免	-11.5996
ҺӨ	-11.5996
▁میلادی	-11.5996
▁sondern	-11.5997
▁namn	-11.5998
▁Efter	-11.5998
▁Ras	-11.5998
▁adapt	-11.5999
▁formar	-11.5999
になった	-11.5999
โอ	-11.6
szer	-11.6
▁ویکیپدیاسی	-11.6001
▁Tro	-11.6001
結果	-11.6001
▁Harper	-11.6001
人的	-11.6001
▁Сам	-11.6001
kunta	-11.6002
ији	-11.6003
lung	-11.6003
▁Leben	-11.6003
нес	-11.6003
▁prie	-11.6004
▁основ	-11.6005
ame	-11.6005
▁گؤتورولو	-11.6005
▁Place	-11.6007
רים	-11.6007
▁Baron	-11.6008
SS	-11.6008
▁Cooper	-11.6009
▁tích	-11.6009
▁sh	-11.601
iller	-11.6012
ลา	-11.6014
▁francese	-11.6014
งาน	-11.6014
іст	-11.6014
蒂	-11.6015
▁strong	-11.6015
▁Biography	-11.6017
eder	-11.6018
▁최	-11.6019
सा	-11.602
核	-11.6022
▁kontrol	-11.6022
स्ट	-11.6023
▁гу	-11.6023
▁families	-11.6024
ucht	-11.6028
ström	-11.6028
▁później	-11.6029
રી	-11.6029
ации	-11.603
▁систем	-11.603
▁continue	-11.6031
▁Wo	-11.6031
▁agent	-11.6031
jó	-11.6031
▁הר	-11.6032
ทํา	-11.6035
▁Bab	-11.6035
לה	-11.6035
▁formal	-11.6036
▁வ	-11.6037
▁получил	-11.6037
▁ком	-11.6037
▁Bond	-11.6038
補	-11.6038
right	-11.6038
ised	-11.6039
down	-11.604
њу	-11.6041
▁Ple	-11.6042
▁ноября	-11.6043
▁Tol	-11.6044
▁scène	-11.6044
▁Memorial	-11.6045
▁Philippe	-11.6045
ucci	-11.6046
▁의	-11.6046
建設	-11.6046
▁tuli	-11.6046
▁Georges	-11.6047
stin	-11.6047
侵	-11.6048
邊	-11.6048
▁logo	-11.6048
ယ်	-11.6049
సి	-11.6049
▁Cook	-11.6049
▁here	-11.605
ridae	-11.6052
▁ellen	-11.6052
elen	-11.6052
▁stycznia	-11.6052
▁које	-11.6055
▁FA	-11.6055
オー	-11.6055
▁està	-11.6056
тка	-11.6056
你	-11.6057
▁gồm	-11.6057
▁чтобы	-11.6058
▁Gebiet	-11.6058
лег	-11.6059
tang	-11.606
ժ	-11.6061
ਜ਼	-11.6061
▁Blues	-11.6065
▁andra	-11.6065
네	-11.6065
▁мәліметтер	-11.6067
hari	-11.6068
овых	-11.6068
emp	-11.6069
ņa	-11.6071
serie	-11.6071
杀	-11.6071
ач	-11.6071
▁!	-11.6073
нев	-11.6073
▁Cour	-11.6073
ći	-11.6073
▁кино	-11.6074
▁מספר	-11.6074
LA	-11.6075
円	-11.6076
敵	-11.6076
▁Мон	-11.6076
▁Ուկրաինայի	-11.6076
▁Grant	-11.6077
નું	-11.6079
▁lingua	-11.608
view	-11.6081
▁Bungto	-11.6081
кол	-11.6083
▁мор	-11.6083
увати	-11.6083
իայի	-11.6084
▁ris	-11.6084
▁squadra	-11.6084
-8	-11.6085
》、《	-11.6085
▁Champion	-11.6087
▁Route	-11.6088
ಡ್	-11.6088
geschichte	-11.609
ూ	-11.6093
域	-11.6094
▁rich	-11.6094
แ	-11.6094
▁ई	-11.6094
▁Gebäude	-11.6095
ビー	-11.6095
▁1800	-11.6096
▁Иван	-11.6096
–17	-11.6097
တ်	-11.6099
ான	-11.6099
▁ਨੇ	-11.61
▁우	-11.6101
▁друг	-11.6102
▁진	-11.6102
▁साथ	-11.6103
kad	-11.6104
審	-11.6104
ark	-11.6104
▁ביותר	-11.6104
▁introdu	-11.6105
út	-11.6105
▁કે	-11.6105
▁кои	-11.6105
妻	-11.6106
бит	-11.6106
▁región	-11.6107
▁cat	-11.6107
เท	-11.6108
▁redu	-11.6108
քի	-11.6108
▁Marcus	-11.6108
▁estar	-11.6109
ַ	-11.6109
▁profesional	-11.6109
▁(2016)	-11.6109
▁broj	-11.6109
▁stabil	-11.6111
▁Dec	-11.6112
▁agua	-11.6112
道路	-11.6113
fri	-11.6113
▁tidligere	-11.6114
▁kind	-11.6114
▁bes	-11.6116
▁figure	-11.6116
ဒ	-11.6117
ಬ	-11.6117
ання	-11.6117
唱	-11.6117
զ	-11.6118
▁oper	-11.6121
▁fand	-11.6121
▁replaced	-11.6121
AC	-11.6122
ियों	-11.6124
▁Xi	-11.6125
quí	-11.6125
สม	-11.6125
itel	-11.6126
▁flo	-11.6126
▁René	-11.6126
▁liter	-11.6127
▁Abu	-11.6127
후	-11.6127
ương	-11.6128
inə	-11.6129
▁Temp	-11.6129
rú	-11.6129
ður	-11.6131
ნი	-11.6132
ოს	-11.6133
届	-11.6133
拍	-11.6133
▁2013)	-11.6135
מת	-11.6136
Har	-11.6138
▁temple	-11.6138
وری	-11.6138
▁Λ	-11.6138
▁Morris	-11.6138
▁bri	-11.6139
▁giải	-11.614
財	-11.614
▁له	-11.614
vul	-11.614
tata	-11.614
eres	-11.6141
eze	-11.6142
▁Vila	-11.6143
evante	-11.6143
களை	-11.6143
▁mejor	-11.6144
▁transform	-11.6144
▁પ	-11.6144
▁island	-11.6144
▁sort	-11.6144
▁Пер	-11.6145
▁сан	-11.6145
▁Uni	-11.6145
▁rằng	-11.6147
质	-11.6147
▁Gali	-11.6147
▁Arena	-11.6147
▁Arten	-11.6148
ಲೆ	-11.6148
roy	-11.6149
iff	-11.6149
学生	-11.6149
▁orde	-11.615
▁(2009).	-11.615
、1	-11.6151
▁groot	-11.6151
▁ویکیپیڈیا	-11.6152
▁1988.	-11.6154
ців	-11.6155
mmen	-11.6155
」「	-11.6157
iš	-11.6158
▁может	-11.616
▁104	-11.616
▁prend	-11.6165
▁بعض	-11.6165
fic	-11.6167
टा	-11.6168
法律	-11.6168
bang	-11.6168
▁Pie	-11.6169
chal	-11.617
话	-11.6171
因為	-11.6171
▁ensuite	-11.6171
▁ever	-11.6173
▁vä	-11.6174
▁Germania	-11.6174
тары	-11.6175
tech	-11.6177
▁מח	-11.6178
▁players	-11.6179
opp	-11.6179
zni	-11.618
▁respect	-11.618
details	-11.6181
ført	-11.6183
▁Indiana	-11.6183
▁prvi	-11.6184
▁입	-11.6185
▁نسبة	-11.6185
hä	-11.6185
Ko	-11.6186
▁platsen	-11.6187
бан	-11.6187
▁Nelson	-11.6187
▁biztanle	-11.6187
AN	-11.6188
▁мм	-11.6188
ettiin	-11.6188
рин	-11.6188
▁Eb	-11.619
ถูก	-11.6191
倒	-11.6195
▁امریکا	-11.6195
▁điều	-11.6195
▁bla	-11.6195
inis	-11.6195
aju	-11.6197
ура	-11.6198
ან	-11.6198
skou	-11.6199
გ	-11.6201
ปี	-11.6201
▁Egypt	-11.6201
▁près	-11.6202
▁situa	-11.6203
▁Pad	-11.6204
极	-11.6204
▁kunst	-11.6204
ढ	-11.6205
▁кам	-11.6207
▁Населення	-11.6209
▁División	-11.621
▁Atlantic	-11.621
▁Maurice	-11.621
▁Filip	-11.6212
▁además	-11.6214
▁territori	-11.6214
arı	-11.6214
认为	-11.6215
eş	-11.6216
usz	-11.6216
▁било	-11.6216
▁spre	-11.6216
▁able	-11.6217
ografi	-11.6218
▁äbinädon	-11.6219
▁torneo	-11.6219
▁parents	-11.6219
▁Кур	-11.6219
▁proceso	-11.622
登場	-11.622
▁106	-11.6221
▁վրա	-11.6221
费	-11.6223
いて	-11.6224
年には	-11.6224
,7%	-11.6225
さん	-11.6226
ına	-11.6226
▁Кан	-11.6227
▁Gilbert	-11.6228
边	-11.6228
▁entonces	-11.6228
▁pam	-11.6228
asse	-11.6228
▁Chief	-11.6228
▁interest	-11.6229
▁ряд	-11.623
1995	-11.623
▁Ett	-11.6231
▁Soul	-11.6232
ਸ਼	-11.6232
▁৩	-11.6232
▁এর	-11.6232
▁Ми	-11.6235
▁Text	-11.6236
▁trung	-11.6236
▁име	-11.6238
▁lokala	-11.6239
င်	-11.624
発売	-11.624
▁אחד	-11.624
▁female	-11.624
stelle	-11.6241
▁sit	-11.6242
充	-11.6243
▁lực	-11.6243
moni	-11.6243
られ	-11.6244
▁الك	-11.6245
?".	-11.6245
▁Stand	-11.6245
iä	-11.6248
▁Verein	-11.6248
▁storia	-11.6248
際	-11.625
fond	-11.6251
ագր	-11.6251
▁provided	-11.6253
▁Popular	-11.6253
gad	-11.6253
▁بل	-11.6254
▁mediana	-11.6256
▁febrero	-11.6256
▁countries	-11.6257
▁podczas	-11.6257
▁hebben	-11.6257
▁klas	-11.6258
▁kW	-11.6259
▁scene	-11.626
▁gehörte	-11.626
▁жыл	-11.626
▁استفاده	-11.6262
lement	-11.6262
▁करने	-11.6262
▁prime	-11.6263
▁ellos	-11.6263
cano	-11.6264
▁św	-11.6265
ൊ	-11.6265
▁Segunda	-11.6265
innen	-11.6265
лай	-11.6267
▁Dog	-11.6268
éré	-11.627
IM	-11.6271
▁Dragon	-11.6271
之後	-11.6272
mbe	-11.6272
▁£	-11.6272
rò	-11.6273
▁bizi	-11.6273
▁hau	-11.6273
gers	-11.6274
valora	-11.6274
▁verb	-11.6275
arinespecies	-11.6276
▁století	-11.6276
ジェ	-11.6277
▁Burton	-11.6278
▁Meter	-11.6278
▁Laura	-11.6278
кра	-11.6281
▁toute	-11.6283
фер	-11.6284
▁ই	-11.6284
▁1854	-11.6284
lage	-11.6284
ního	-11.6286
▁{	-11.6286
▁mineral	-11.6287
ета	-11.6287
▁Take	-11.6288
acht	-11.629
ոս	-11.629
▁הספר	-11.629
▁Zur	-11.6291
box	-11.6291
要求	-11.6293
なかった	-11.6295
弘	-11.6295
TO	-11.6298
▁februar	-11.6298
▁effect	-11.6299
yw	-11.6299
arum	-11.63
▁барамехь	-11.63
▁erstmals	-11.63
▁ר	-11.6301
▁Mare	-11.6302
ezh	-11.6304
▁mode	-11.6304
▁febbraio	-11.6305
▁थासय्	-11.6305
▁университет	-11.6306
▁gör	-11.6306
▁oltre	-11.6306
vali	-11.6307
Pre	-11.6308
▁240	-11.6308
опис	-11.6308
▁Wu	-11.631
▁tropical	-11.631
▁Britain	-11.631
▁които	-11.6311
սի	-11.6312
▁Blood	-11.6313
▁Mega	-11.6313
▁Uniti	-11.6314
▁голов	-11.6314
▁Ար	-11.6314
▁đêm	-11.6315
ไทย	-11.6315
▁שמ	-11.6316
=1	-11.6317
▁cent	-11.6317
oda	-11.6317
▁tru	-11.6318
期間	-11.6318
▁Раз	-11.6322
▁1980.	-11.6322
▁França	-11.6324
Численность	-11.6325
▁següent	-11.6325
צר	-11.6326
▁све	-11.6326
▁sera	-11.6326
kala	-11.6328
▁lloc	-11.6329
▁Coast	-11.6329
▁syns	-11.633
▁اینگیلیسجه	-11.633
▁eks	-11.6332
▁Gun	-11.6334
owania	-11.6334
▁publié	-11.6334
लाई	-11.6336
руч	-11.6336
▁Matthew	-11.6336
▁previous	-11.6336
▁Torre	-11.6337
▁nove	-11.6337
▁сто	-11.6337
ху	-11.6337
લી	-11.6337
▁Reino	-11.6339
▁diciembre	-11.6339
▁tiếp	-11.6339
они	-11.6339
blo	-11.6341
▁mill	-11.6342
▁Folge	-11.6342
inne	-11.6342
▁Boys	-11.6343
▁cosa	-11.6343
▁Տ	-11.6343
کو	-11.6343
ொ	-11.6343
▁Metal	-11.6344
▁میباشد	-11.6344
▁خط	-11.6345
št	-11.6346
లోను	-11.6346
uksen	-11.6347
▁pertsona	-11.6348
よう	-11.6348
▁Card	-11.6348
▁Vincent	-11.6349
ัน	-11.6349
▁роль	-11.6349
▁Harris	-11.635
▁grupos	-11.635
▁northern	-11.635
იდან	-11.635
▁flu	-11.6351
▁آر	-11.6353
▁troch	-11.6353
▁tienen	-11.6353
寧	-11.6354
▁Adel	-11.6354
▁Rud	-11.6354
▁Edition	-11.6354
▁مس	-11.6354
ههای	-11.6354
▁Charlotte	-11.6358
▁محفوظة	-11.6359
▁Lie	-11.6359
▁algunos	-11.636
itt	-11.6361
jana	-11.6363
彼	-11.6363
ある	-11.6363
ect	-11.6363
株式会社	-11.6364
皇帝	-11.6365
▁1992,	-11.6365
▁afin	-11.6366
▁jour	-11.6366
ům	-11.6367
raf	-11.6367
buk	-11.6367
▁aller	-11.6368
▁län	-11.6368
tų	-11.637
▁(1998).	-11.637
evi	-11.6371
▁nime	-11.6371
▁represent	-11.6372
▁інш	-11.6376
▁Ú	-11.6377
最終	-11.6378
ユ	-11.6378
▁bel	-11.6378
ľ	-11.6378
▁бай	-11.6379
ghe	-11.6379
▁nuovo	-11.638
▁situation	-11.6381
boj	-11.6381
դի	-11.6383
بة	-11.6383
கா	-11.6383
▁ми	-11.6384
▁Turn	-11.6384
日の	-11.6385
▁κατα	-11.6385
ဖ	-11.6386
▁Billy	-11.6386
նում	-11.6387
దు	-11.6389
дей	-11.6389
▁gebied	-11.6389
▁gegründet	-11.6389
uw	-11.639
▁ži	-11.6391
様	-11.6392
▁fragment	-11.6393
▁behind	-11.6393
▁Carter	-11.6394
▁Silva	-11.6394
ณ	-11.6394
νο	-11.6395
▁কা	-11.6395
▁nim	-11.6395
▁cita	-11.6395
▁출	-11.6396
▁Sarah	-11.6396
▁charge	-11.6397
omo	-11.6397
寄	-11.6397
▁thường	-11.6398
不同	-11.6399
▁Reichs	-11.6399
▁sezon	-11.6401
▁말	-11.6402
isan	-11.6402
▁այն	-11.6404
▁הי	-11.6404
▁egyik	-11.6404
▁kleine	-11.6405
节	-11.6406
RS	-11.6406
ై	-11.6407
▁complete	-11.6408
출	-11.6408
ハイ	-11.641
▁versión	-11.641
roman	-11.6411
erd	-11.6412
▁southern	-11.6413
▁истории	-11.6416
rend	-11.6416
▁Թ	-11.6417
▁Benjamin	-11.6417
▁Orden	-11.6417
▁Kru	-11.6417
motor	-11.6418
forma	-11.6418
▁év	-11.6418
▁DNA	-11.642
▁jeung	-11.6421
について	-11.6421
900	-11.6422
▁nye	-11.6422
▁которой	-11.6422
▁орналасқан	-11.6422
aż	-11.6423
eksi	-11.6423
▁Many	-11.6423
▁resto	-11.6424
▁prior	-11.6424
rri	-11.6425
izo	-11.6425
海軍	-11.6426
▁publication	-11.6427
▁astronom	-11.6428
ege	-11.6429
suatu	-11.6429
த்தை	-11.643
▁>	-11.6431
▁daar	-11.6433
aza	-11.6434
lais	-11.6435
ъл	-11.6435
▁član	-11.6435
呼	-11.6436
含	-11.6437
▁игра	-11.6438
news	-11.6438
▁fatto	-11.6439
▁gibi	-11.644
▁ನಿ	-11.644
▁ఇ	-11.6441
ijas	-11.6442
▁multiple	-11.6443
▁tale	-11.6443
Bar	-11.6443
▁غ	-11.6445
ood	-11.6446
▁cur	-11.6446
쿠	-11.6446
чі	-11.6447
▁tij	-11.6447
мов	-11.6447
رت	-11.6448
▁rather	-11.6449
面積	-11.645
通過	-11.645
▁220	-11.6452
tische	-11.6452
aphia	-11.6452
▁Loma	-11.6453
انگریزی	-11.6453
ость	-11.6454
▁competition	-11.6456
▁(2004).	-11.6456
賀	-11.6456
▁اما	-11.6457
▁sina	-11.6458
▁högst	-11.6458
זה	-11.646
▁теле	-11.646
▁совет	-11.6461
▁ಶ	-11.6461
莫	-11.6461
▁gene	-11.6461
▁cinema	-11.6462
▁ruolo	-11.6462
ഭ	-11.6462
▁Bag	-11.6463
▁Че	-11.6464
▁communi	-11.6464
טה	-11.6464
▁135	-11.6465
ellä	-11.6467
聯	-11.6467
ordre	-11.6468
▁Рас	-11.6468
▁canción	-11.6468
▁porque	-11.6468
▁organization	-11.6469
▁grote	-11.647
▁часть	-11.647
孫	-11.6471
▁WCSP	-11.6471
▁rey	-11.6471
іп	-11.6471
ligi	-11.6473
igh	-11.6473
lada	-11.6473
▁privat	-11.6474
▁lin	-11.6475
▁Werk	-11.6475
錄	-11.6476
است	-11.6477
বি	-11.6477
gis	-11.648
:1	-11.648
▁fikk	-11.648
同年	-11.648
▁반	-11.6481
▁patron	-11.6481
▁railway	-11.6481
▁import	-11.6481
▁Arm	-11.6482
▁stre	-11.6482
▁Palm	-11.6483
Is	-11.6483
▁child	-11.6484
だが	-11.6485
jú	-11.6485
众	-11.6486
burn	-11.6486
▁ט	-11.6486
▁Landkreis	-11.6489
emia	-11.649
▁Kurt	-11.6494
▁Doctor	-11.6494
Pe	-11.6495
zone	-11.6495
▁ada	-11.6495
楼	-11.6495
▁Mes	-11.6496
▁1987.	-11.6496
出場	-11.6497
▁1856	-11.6497
サー	-11.6497
éri	-11.6497
▁går	-11.6497
▁rob	-11.6498
▁חלק	-11.6498
တော်	-11.6498
ไ	-11.6499
▁نوں	-11.6499
▁Hus	-11.6499
▁ที่	-11.65
▁books	-11.6501
▁ін	-11.6501
город	-11.6501
enz	-11.6503
▁Municipal	-11.6505
眾	-11.6505
asan	-11.6505
kun	-11.6506
mens	-11.6506
kli	-11.6507
бург	-11.6507
▁platform	-11.6508
-24	-11.6509
öv	-11.6509
関	-11.6509
larını	-11.6509
▁շ	-11.651
▁tank	-11.651
▁CO	-11.6511
zko	-11.6511
出版社	-11.6511
▁Ва	-11.6512
▁Shah	-11.6512
▁Nella	-11.6512
▁decided	-11.6513
▁savezno	-11.6513
▁variant	-11.6513
คือ	-11.6513
iasonyo	-11.6514
▁bidäda	-11.6515
▁största	-11.6515
เพลง	-11.6515
▁sci	-11.6518
ough	-11.6518
maal	-11.6519
▁quattro	-11.652
tato	-11.6522
▁Liste	-11.6525
▁οποία	-11.6525
▁Revolution	-11.6525
▁topographic	-11.6525
жан	-11.6526
▁Feder	-11.6526
▁rights	-11.6526
▁थे	-11.6526
oid	-11.6526
grand	-11.6526
coli	-11.6527
ському	-11.6527
▁sola	-11.6528
▁Islands	-11.6529
▁lý	-11.6529
sit	-11.6529
ware	-11.6531
▁1995,	-11.6532
hur	-11.6532
lardan	-11.6532
jonka	-11.6534
ària	-11.6534
▁kamen	-11.6535
류	-11.6535
▁към	-11.6536
[...]
